#ifndef MFCC_H
#define MFCC_H


unsigned int MFCC_len = 27848;
unsigned char MFCC[] = {
 0x20, 0x00, 0x00, 0x00, 0x54, 0x46, 0x4c, 0x33, 0x00, 0x00, 0x00, 0x00,
  0x14, 0x00, 0x20, 0x00, 0x1c, 0x00, 0x18, 0x00, 0x14, 0x00, 0x10, 0x00,
  0x0c, 0x00, 0x00, 0x00, 0x08, 0x00, 0x04, 0x00, 0x14, 0x00, 0x00, 0x00,
  0x1c, 0x00, 0x00, 0x00, 0x1c, 0x00, 0x00, 0x00, 0x4c, 0x00, 0x00, 0x00,
  0xd4, 0x4e, 0x00, 0x00, 0xe4, 0x4e, 0x00, 0x00, 0x00, 0x6c, 0x00, 0x00,
  0x03, 0x00, 0x00, 0x00, 0x00, 0x00, 0x00, 0x00, 0x01, 0x00, 0x00, 0x00,
  0x0c, 0x00, 0x00, 0x00, 0x08, 0x00, 0x0c, 0x00, 0x08, 0x00, 0x04, 0x00,
  0x08, 0x00, 0x00, 0x00, 0x1b, 0x00, 0x00, 0x00, 0x04, 0x00, 0x00, 0x00,
  0x13, 0x00, 0x00, 0x00, 0x6d, 0x69, 0x6e, 0x5f, 0x72, 0x75, 0x6e, 0x74,
  0x69, 0x6d, 0x65, 0x5f, 0x76, 0x65, 0x72, 0x73, 0x69, 0x6f, 0x6e, 0x00,
  0x1c, 0x00, 0x00, 0x00, 0x84, 0x4e, 0x00, 0x00, 0x7c, 0x4e, 0x00, 0x00,
  0x64, 0x4e, 0x00, 0x00, 0x4c, 0x4e, 0x00, 0x00, 0x20, 0x4e, 0x00, 0x00,
  0x04, 0x4e, 0x00, 0x00, 0x44, 0x4c, 0x00, 0x00, 0xf4, 0x4b, 0x00, 0x00,
  0xe4, 0x39, 0x00, 0x00, 0x54, 0x39, 0x00, 0x00, 0x44, 0x03, 0x00, 0x00,
  0x74, 0x02, 0x00, 0x00, 0xe4, 0x00, 0x00, 0x00, 0xb4, 0x00, 0x00, 0x00,
  0x94, 0x00, 0x00, 0x00, 0x7c, 0x00, 0x00, 0x00, 0x74, 0x00, 0x00, 0x00,
  0x6c, 0x00, 0x00, 0x00, 0x64, 0x00, 0x00, 0x00, 0x5c, 0x00, 0x00, 0x00,
  0x54, 0x00, 0x00, 0x00, 0x4c, 0x00, 0x00, 0x00, 0x44, 0x00, 0x00, 0x00,
  0x3c, 0x00, 0x00, 0x00, 0x34, 0x00, 0x00, 0x00, 0x2c, 0x00, 0x00, 0x00,
  0x24, 0x00, 0x00, 0x00, 0x04, 0x00, 0x00, 0x00, 0x4e, 0xb1, 0xff, 0xff,
  0x04, 0x00, 0x00, 0x00, 0x10, 0x00, 0x00, 0x00, 0x31, 0x2e, 0x31, 0x34,
  0x2e, 0x30, 0x00, 0x00, 0x00, 0x00, 0x00, 0x00, 0x00, 0x00, 0x00, 0x00,
  0xb8, 0x95, 0xff, 0xff, 0xbc, 0x95, 0xff, 0xff, 0xc0, 0x95, 0xff, 0xff,
  0xc4, 0x95, 0xff, 0xff, 0xc8, 0x95, 0xff, 0xff, 0xcc, 0x95, 0xff, 0xff,
  0xd0, 0x95, 0xff, 0xff, 0xd4, 0x95, 0xff, 0xff, 0xd8, 0x95, 0xff, 0xff,
  0xdc, 0x95, 0xff, 0xff, 0xe0, 0x95, 0xff, 0xff, 0x96, 0xb1, 0xff, 0xff,
  0x04, 0x00, 0x00, 0x00, 0x08, 0x00, 0x00, 0x00, 0x92, 0xfe, 0xff, 0xff,
  0x6e, 0x01, 0x00, 0x00, 0xaa, 0xb1, 0xff, 0xff, 0x04, 0x00, 0x00, 0x00,
  0x10, 0x00, 0x00, 0x00, 0xd5, 0x7f, 0x41, 0xfc, 0x02, 0xd2, 0x9e, 0x88,
  0xe2, 0xb0, 0xd5, 0x21, 0xc1, 0xf1, 0x1a, 0x2d, 0xc6, 0xb1, 0xff, 0xff,
  0x04, 0x00, 0x00, 0x00, 0x20, 0x00, 0x00, 0x00, 0xd6, 0x00, 0x00, 0x00,
  0x96, 0x00, 0x00, 0x00, 0x5c, 0xfc, 0xff, 0xff, 0x3b, 0xfd, 0xff, 0xff,
  0xe2, 0xfd, 0xff, 0xff, 0x23, 0xf9, 0xff, 0xff, 0xe4, 0x06, 0x00, 0x00,
  0x17, 0x01, 0x00, 0x00, 0xf2, 0xb1, 0xff, 0xff, 0x04, 0x00, 0x00, 0x00,
  0x80, 0x01, 0x00, 0x00, 0xe7, 0xeb, 0xf5, 0xf4, 0xfa, 0x1d, 0xee, 0xe1,
  0xed, 0xf5, 0x1b, 0x1f, 0xf6, 0x31, 0xea, 0x13, 0xfa, 0x03, 0x00, 0xec,
  0xfd, 0xf3, 0xea, 0xfc, 0xe4, 0xfe, 0x11, 0x18, 0xd1, 0xef, 0x0e, 0x15,
  0xea, 0x12, 0xf0, 0x16, 0x20, 0xff, 0xd8, 0x0a, 0xeb, 0xed, 0xee, 0x20,
  0xed, 0xe2, 0x00, 0xe1, 0x2c, 0x21, 0xdc, 0xce, 0x53, 0x27, 0x28, 0x12,
  0x07, 0x03, 0xe6, 0x1b, 0xf2, 0x48, 0xf4, 0x10, 0x21, 0x10, 0x02, 0x13,
  0x4f, 0x3e, 0x39, 0x38, 0x1d, 0xe1, 0x12, 0xe7, 0x0e, 0x09, 0xf4, 0xfb,
  0x20, 0xff, 0xe9, 0xbb, 0xa7, 0xd6, 0x23, 0x04, 0xf5, 0x05, 0x32, 0xeb,
  0x1d, 0x00, 0xda, 0x02, 0x11, 0x20, 0x11, 0xfe, 0x42, 0x21, 0x24, 0x37,
  0xe3, 0x1c, 0xdb, 0x1b, 0xe0, 0x51, 0xeb, 0x38, 0x1c, 0x2e, 0x17, 0x21,
  0x17, 0x41, 0x36, 0x26, 0x29, 0x09, 0xf5, 0xe7, 0x39, 0xf7, 0x0e, 0xf9,
  0x27, 0xe9, 0xe7, 0xfe, 0xdb, 0x16, 0x34, 0xdf, 0xd9, 0xec, 0x1d, 0xdd,
  0x00, 0x1b, 0xea, 0x19, 0xe0, 0x1d, 0xf2, 0xea, 0xde, 0xf7, 0xe1, 0xe3,
  0xe4, 0x12, 0xd9, 0xd7, 0xff, 0xfc, 0xf0, 0xfe, 0xfe, 0xdf, 0xf5, 0xf5,
  0x06, 0xea, 0xd9, 0x10, 0xf4, 0x04, 0x04, 0xf7, 0x0d, 0xfb, 0xda, 0xf0,
  0x03, 0xec, 0x0c, 0xec, 0x18, 0xea, 0x1a, 0x0c, 0xe5, 0xe5, 0x09, 0x11,
  0xfd, 0x0b, 0x0a, 0x09, 0x0c, 0x47, 0xf5, 0xf1, 0x4a, 0x0b, 0x33, 0x23,
  0xfb, 0x2b, 0x08, 0x2f, 0xe2, 0x33, 0x0f, 0x20, 0x40, 0x1f, 0x28, 0x1e,
  0x3c, 0x47, 0x4a, 0x3f, 0x0e, 0xe0, 0xfe, 0xd4, 0x3c, 0x06, 0xf2, 0x14,
  0x06, 0xe4, 0xe7, 0x10, 0xdb, 0x0e, 0x2b, 0xe8, 0xf7, 0xff, 0xfb, 0xe4,
  0x07, 0x24, 0x0e, 0x25, 0xbd, 0x11, 0x0d, 0xf9, 0xfd, 0xee, 0xe8, 0x13,
  0xfe, 0xd8, 0xda, 0xe1, 0xf0, 0xd2, 0xe2, 0x14, 0xd3, 0x06, 0x1e, 0xf5,
  0xe9, 0x09, 0x06, 0x0e, 0xf3, 0xf4, 0xca, 0xcc, 0x21, 0xde, 0xec, 0xe9,
  0xe8, 0x0f, 0xec, 0x04, 0xc1, 0xed, 0x0c, 0xeb, 0xf6, 0xd9, 0x0f, 0x06,
  0xda, 0x12, 0xf6, 0x0a, 0x20, 0xc5, 0x30, 0x2d, 0x8a, 0xfa, 0xb9, 0xca,
  0x0d, 0x1f, 0x07, 0xea, 0x27, 0xb4, 0x14, 0xa2, 0xa7, 0xff, 0xe7, 0xb1,
  0xb1, 0xd6, 0xc1, 0xa6, 0xe3, 0x19, 0x16, 0x3a, 0xd1, 0x2c, 0x19, 0x03,
  0xc7, 0xf9, 0x08, 0x11, 0x32, 0x24, 0xc2, 0x22, 0x1d, 0xff, 0xf6, 0xe1,
  0xd3, 0xe4, 0x03, 0xe0, 0x10, 0x92, 0x06, 0xe6, 0xdd, 0xed, 0x8e, 0xae,
  0x13, 0x21, 0x17, 0xde, 0x00, 0xac, 0xf0, 0xfc, 0x9c, 0xe3, 0x81, 0xb2,
  0xdc, 0xcf, 0xb4, 0x9c, 0xed, 0x29, 0x1d, 0x0b, 0xce, 0x08, 0x1b, 0x1f,
  0xe0, 0xc3, 0xea, 0x1f, 0x2f, 0x2b, 0xdc, 0x13, 0x0e, 0xf0, 0xff, 0xde,
  0xca, 0xdf, 0x20, 0xcd, 0x7e, 0xb3, 0xff, 0xff, 0x04, 0x00, 0x00, 0x00,
  0xc0, 0x00, 0x00, 0x00, 0x79, 0x71, 0x00, 0x00, 0xd0, 0xde, 0xff, 0xff,
  0x1f, 0xd8, 0xff, 0xff, 0x30, 0xe0, 0xff, 0xff, 0x26, 0x12, 0x00, 0x00,
  0xac, 0x1f, 0x00, 0x00, 0x36, 0xda, 0xff, 0xff, 0x4b, 0xcd, 0xff, 0xff,
  0x24, 0xb5, 0xff, 0xff, 0x57, 0xba, 0xff, 0xff, 0xd6, 0x60, 0x00, 0x00,
  0xf5, 0x20, 0x00, 0x00, 0x4b, 0xee, 0xff, 0xff, 0x52, 0xd4, 0xff, 0xff,
  0x10, 0x33, 0x00, 0x00, 0x9c, 0xd0, 0xff, 0xff, 0xf4, 0x8f, 0xff, 0xff,
  0xaf, 0x32, 0x00, 0x00, 0xf1, 0xad, 0xff, 0xff, 0xa8, 0xbc, 0xff, 0xff,
  0x23, 0x0f, 0x00, 0x00, 0xb1, 0xd4, 0xff, 0xff, 0x04, 0xca, 0xff, 0xff,
  0x4a, 0xf2, 0xff, 0xff, 0x0c, 0x16, 0x00, 0x00, 0x71, 0xd8, 0xff, 0xff,
  0x2b, 0x54, 0x00, 0x00, 0x78, 0xd7, 0xff, 0xff, 0xc5, 0xd9, 0xff, 0xff,
  0x3e, 0xdd, 0xff, 0xff, 0x62, 0x28, 0x00, 0x00, 0xa8, 0xc4, 0xff, 0xff,
  0xe2, 0xea, 0xff, 0xff, 0x6d, 0xa8, 0xff, 0xff, 0x9f, 0xb7, 0xff, 0xff,
  0x3f, 0xc4, 0xff, 0xff, 0xb7, 0x0c, 0x00, 0x00, 0xfb, 0xb0, 0xff, 0xff,
  0x75, 0xde, 0xff, 0xff, 0x38, 0x49, 0x00, 0x00, 0x79, 0xc9, 0xff, 0xff,
  0xd6, 0xf6, 0xff, 0xff, 0xd3, 0x14, 0x00, 0x00, 0x7e, 0xb1, 0xff, 0xff,
  0x52, 0xda, 0xff, 0xff, 0x58, 0xc9, 0xff, 0xff, 0x23, 0xe7, 0xff, 0xff,
  0x5e, 0x8d, 0xff, 0xff, 0x4a, 0xb4, 0xff, 0xff, 0x04, 0x00, 0x00, 0x00,
  0x00, 0x36, 0x00, 0x00, 0xfa, 0x01, 0x05, 0x02, 0x09, 0x10, 0x0e, 0xf2,
  0xfd, 0x06, 0x10, 0xf4, 0x11, 0x0b, 0xf9, 0xf4, 0xf3, 0xfe, 0xef, 0x07,
  0xf2, 0xf2, 0x00, 0x08, 0x10, 0x10, 0x08, 0x02, 0x0e, 0xfb, 0xff, 0xfa,
  0xe4, 0xe5, 0x81, 0xe7, 0x1d, 0xae, 0xcf, 0xde, 0xfe, 0xe2, 0xe8, 0xa4,
  0x19, 0x33, 0xcd, 0xde, 0x9b, 0xb4, 0xbb, 0xec, 0x48, 0xd7, 0xca, 0xb5,
  0x94, 0xa9, 0x12, 0x23, 0x0e, 0xf2, 0xbd, 0x86, 0x10, 0x0f, 0x11, 0x0e,
  0xf0, 0x10, 0xf7, 0x0d, 0xf8, 0x07, 0x06, 0xf4, 0xfc, 0x0f, 0x07, 0xff,
  0x09, 0x04, 0xf5, 0x0b, 0xf6, 0x01, 0x04, 0x0e, 0x03, 0x06, 0xf8, 0xf1,
  0x0f, 0xfa, 0x07, 0x08, 0x0e, 0x0e, 0x0c, 0xf2, 0x0f, 0x0c, 0x09, 0x0c,
  0x05, 0x01, 0x00, 0x07, 0xf3, 0xf0, 0x08, 0x0f, 0xf1, 0xf0, 0xf9, 0x09,
  0x03, 0xf5, 0xff, 0xf2, 0x02, 0xf4, 0xf0, 0xf3, 0xf1, 0xf7, 0xf6, 0xf1,
  0xed, 0x34, 0xf9, 0x0a, 0xd5, 0xad, 0xfe, 0xb1, 0xe5, 0xe1, 0x1e, 0xee,
  0xf8, 0x16, 0x0c, 0x24, 0x1b, 0xf4, 0xf4, 0x0d, 0xd1, 0xd6, 0xbe, 0xf6,
  0x26, 0x0c, 0x00, 0x1b, 0x16, 0xea, 0x19, 0x19, 0xf4, 0xf9, 0x04, 0x07,
  0xf7, 0xf8, 0xf5, 0xf4, 0xfd, 0x07, 0x0b, 0xf9, 0x06, 0xff, 0x07, 0x04,
  0x09, 0x0b, 0x0b, 0xfc, 0x05, 0xf1, 0xf9, 0x0c, 0xfa, 0x02, 0xfb, 0xf1,
  0x05, 0x0e, 0x0e, 0x08, 0x07, 0x04, 0xf7, 0xf6, 0x04, 0x0c, 0x0c, 0xfe,
  0x09, 0xf3, 0xfc, 0xfb, 0x06, 0xf0, 0x07, 0xfb, 0xf0, 0x0d, 0x0c, 0x10,
  0x0f, 0xf0, 0xf6, 0xfa, 0x07, 0xf8, 0x06, 0xf4, 0x09, 0x05, 0xf0, 0xfb,
  0xc7, 0x69, 0xfe, 0xee, 0x13, 0x25, 0xf3, 0xfc, 0x2d, 0xfe, 0x47, 0x3a,
  0xd2, 0xfc, 0xdc, 0x41, 0xcf, 0xd7, 0x0e, 0x0e, 0x06, 0xf9, 0x20, 0xe5,
  0x14, 0xb0, 0x0f, 0x10, 0xf1, 0x0f, 0xe1, 0x12, 0xfc, 0x06, 0xfc, 0xf8,
  0x0e, 0x04, 0xfc, 0x0f, 0x07, 0x0f, 0xef, 0x0b, 0xf4, 0x07, 0x0a, 0x01,
  0xf2, 0xfc, 0xf0, 0xf5, 0x06, 0x02, 0xf4, 0xfd, 0x0d, 0x0b, 0x0e, 0x09,
  0xf8, 0x09, 0xfb, 0xf3, 0xf6, 0xfd, 0xfb, 0x0b, 0xfb, 0xf5, 0x0a, 0x02,
  0xfe, 0x0c, 0x0d, 0xf4, 0xf9, 0x00, 0x08, 0xff, 0xf7, 0x01, 0x09, 0xf4,
  0x01, 0x04, 0x0c, 0x0b, 0x02, 0x01, 0x07, 0x0b, 0x02, 0xff, 0x03, 0x06,
  0x15, 0xd6, 0x7f, 0x48, 0xc8, 0x0a, 0xa9, 0xc1, 0xee, 0x65, 0xed, 0xe3,
  0xc8, 0xfa, 0x37, 0xc4, 0x26, 0x02, 0x22, 0x3e, 0xe1, 0x1f, 0xcc, 0x17,
  0x01, 0x05, 0x31, 0x1a, 0xf6, 0xd4, 0x4a, 0x0b, 0xf8, 0xff, 0x03, 0x0a,
  0x0a, 0x09, 0x0a, 0xfa, 0xfd, 0x04, 0x05, 0x04, 0x03, 0xfd, 0x02, 0xf5,
  0xf3, 0xf7, 0x0c, 0xfc, 0xfd, 0x0c, 0x05, 0x0b, 0x09, 0x04, 0x0b, 0xf5,
  0xff, 0x07, 0x01, 0xfa, 0x08, 0x03, 0x0c, 0xff, 0xf3, 0x01, 0xfb, 0x00,
  0x09, 0x02, 0xf3, 0x07, 0x07, 0x0c, 0xf6, 0x08, 0xfb, 0xfb, 0xf8, 0x09,
  0xf3, 0x0d, 0xf5, 0xf3, 0xfb, 0x03, 0x06, 0xf8, 0xf9, 0xf3, 0x0e, 0xfe,
  0x06, 0xd5, 0x02, 0xf7, 0xce, 0x11, 0xfb, 0xcd, 0x26, 0x11, 0x0c, 0xf8,
  0x0a, 0x1e, 0x17, 0xe5, 0xff, 0x12, 0x06, 0x12, 0xfb, 0x24, 0xf1, 0x07,
  0x00, 0xee, 0xef, 0xdd, 0x72, 0xf9, 0xe0, 0xdc, 0xff, 0xf8, 0x05, 0x0a,
  0x03, 0x03, 0x08, 0xf9, 0xf6, 0x02, 0x08, 0xfa, 0x03, 0x02, 0x09, 0x05,
  0x0c, 0xfb, 0x0b, 0xf3, 0x0b, 0x02, 0xf7, 0x0d, 0xf2, 0x0d, 0x08, 0xfb,
  0x0d, 0x00, 0x0b, 0xfa, 0xfb, 0xfa, 0x0a, 0xff, 0xfa, 0xf9, 0xf8, 0x05,
  0x06, 0xf5, 0x01, 0x0e, 0x02, 0x07, 0xfd, 0xf4, 0xf6, 0xfa, 0xf5, 0x09,
  0xfa, 0xfe, 0xf5, 0x08, 0xfb, 0x06, 0x04, 0xf4, 0x09, 0xff, 0x05, 0x06,
  0xd0, 0xd4, 0xe1, 0xea, 0xe8, 0x13, 0x0d, 0x10, 0xd6, 0xdf, 0x0b, 0x24,
  0xf8, 0x0d, 0xe0, 0x2b, 0x25, 0xdb, 0x06, 0x09, 0xfe, 0x00, 0x08, 0x23,
  0x24, 0xfe, 0x00, 0xf5, 0xde, 0xfd, 0x08, 0x3f, 0x08, 0x03, 0xf3, 0xf9,
  0x06, 0xf4, 0x02, 0xfe, 0xfb, 0x06, 0xf4, 0x03, 0xf5, 0xfb, 0x0b, 0x08,
  0x09, 0x02, 0xf3, 0x08, 0x05, 0x09, 0x05, 0x01, 0xfd, 0xf7, 0xf4, 0xfe,
  0x0e, 0x01, 0x09, 0xf9, 0x05, 0xf9, 0xf7, 0x05, 0xf4, 0x0b, 0x03, 0xfa,
  0xf4, 0x02, 0xf7, 0x07, 0xfd, 0xf3, 0x07, 0x08, 0x05, 0xf5, 0x08, 0xf5,
  0x08, 0xf9, 0x08, 0x03, 0xf6, 0x05, 0xf6, 0xf5, 0xfb, 0xf5, 0x07, 0x01,
  0x25, 0xf8, 0x02, 0x2f, 0x23, 0xe8, 0x00, 0x0a, 0x0c, 0xdf, 0xfe, 0x06,
  0x14, 0x0c, 0x10, 0xb8, 0xff, 0x23, 0xc5, 0xed, 0xe6, 0xe8, 0xca, 0xf8,
  0xbe, 0x04, 0x38, 0x08, 0x2e, 0x55, 0x12, 0xef, 0xfb, 0xfa, 0x03, 0x06,
  0xf8, 0xf2, 0xff, 0x00, 0x0c, 0xfc, 0x06, 0xf7, 0xfd, 0x03, 0xfd, 0x02,
  0xfe, 0xfd, 0x0d, 0x07, 0xfa, 0x05, 0x07, 0x07, 0x03, 0xf9, 0x00, 0x07,
  0xf6, 0x04, 0xf2, 0xfa, 0xfa, 0x02, 0x0b, 0x0c, 0xfe, 0x03, 0xfd, 0x0c,
  0x0a, 0xfc, 0xf8, 0x05, 0x04, 0xf8, 0x09, 0xf8, 0x0b, 0xf5, 0x02, 0x0d,
  0xfc, 0x05, 0xf7, 0x00, 0xfc, 0x00, 0x01, 0x01, 0xf6, 0x06, 0x0d, 0xfa,
  0x08, 0xec, 0x0f, 0x21, 0x7f, 0x08, 0xf1, 0x34, 0x31, 0x06, 0x2c, 0x07,
  0x4b, 0x4a, 0xf0, 0xf7, 0xea, 0xf7, 0xed, 0xe4, 0x1c, 0xfc, 0x03, 0xea,
  0xf3, 0xd8, 0x00, 0x29, 0xfe, 0x33, 0xff, 0x0a, 0x03, 0xfb, 0x08, 0xfc,
  0xfb, 0xf7, 0xfb, 0xfc, 0x0b, 0x06, 0x07, 0x0d, 0x09, 0xf7, 0xf5, 0x06,
  0xfd, 0xf7, 0x06, 0x07, 0xf4, 0xfe, 0x0c, 0xfb, 0xfb, 0x0a, 0x00, 0x06,
  0xf2, 0xfc, 0xfd, 0x00, 0x0b, 0x0c, 0x01, 0xfd, 0xf2, 0xf8, 0x04, 0x04,
  0x0a, 0x07, 0xfd, 0xfd, 0x0a, 0x0b, 0x01, 0xf5, 0xf9, 0x05, 0xf3, 0xf3,
  0x04, 0xf3, 0xf7, 0x0b, 0x0b, 0x02, 0x02, 0x05, 0x04, 0x07, 0xfa, 0x01,
  0xec, 0x09, 0xf0, 0xd1, 0xac, 0xd8, 0x3a, 0xea, 0xaa, 0x06, 0xe2, 0x2e,
  0xe3, 0xf7, 0x1d, 0x39, 0xf2, 0xdb, 0x16, 0x1c, 0xef, 0xd6, 0x20, 0xfa,
  0xfc, 0x1d, 0xf1, 0xd1, 0xe9, 0xa2, 0x12, 0x1c, 0xff, 0x0b, 0x0d, 0x07,
  0x0b, 0xfe, 0x03, 0x08, 0x09, 0xfd, 0x06, 0xf8, 0xf6, 0x0c, 0xf8, 0x06,
  0x00, 0x0b, 0xf3, 0xf2, 0x09, 0x03, 0x08, 0xfa, 0x02, 0xf6, 0xf5, 0xf2,
  0x0a, 0x01, 0x07, 0xf6, 0xf8, 0xf3, 0x06, 0x0c, 0xfd, 0x00, 0xf7, 0x08,
  0xf6, 0x01, 0xff, 0x00, 0xff, 0x0c, 0x05, 0xf6, 0x00, 0x04, 0xfd, 0x06,
  0xf3, 0x03, 0x05, 0x06, 0x0a, 0xf4, 0x0b, 0xf3, 0x05, 0xf7, 0x08, 0x07,
  0x0e, 0x2c, 0x01, 0x09, 0x2a, 0x02, 0x23, 0x34, 0x32, 0xe1, 0x14, 0x2c,
  0xf2, 0xcc, 0xfe, 0xcc, 0x19, 0x3a, 0xdd, 0xea, 0x07, 0xeb, 0xef, 0x0e,
  0xe2, 0x0f, 0x19, 0xda, 0x3f, 0x4b, 0x04, 0xed, 0xfc, 0xf9, 0x03, 0xfd,
  0x0b, 0x0a, 0xf5, 0x0a, 0xff, 0xf6, 0xf9, 0x07, 0xf4, 0xfc, 0x0b, 0x07,
  0x0a, 0x0b, 0x03, 0xf5, 0x00, 0xfa, 0x08, 0x00, 0xfc, 0x08, 0xf4, 0x0d,
  0xf5, 0x02, 0xff, 0x0b, 0xfe, 0xf8, 0xff, 0x07, 0xfd, 0x03, 0x08, 0x06,
  0xf4, 0x09, 0xf4, 0x09, 0xf6, 0x01, 0xfe, 0x06, 0x00, 0x01, 0xf3, 0x04,
  0x03, 0xfe, 0xfb, 0xf7, 0xf8, 0xf9, 0xf9, 0x0d, 0x05, 0xf4, 0x02, 0x0b,
  0x03, 0x0c, 0x02, 0x29, 0x7f, 0x04, 0x14, 0x3a, 0x2c, 0xeb, 0x04, 0x07,
  0x3b, 0x37, 0xf5, 0xeb, 0xdd, 0x01, 0xe1, 0xdf, 0x35, 0x0c, 0x0f, 0xd2,
  0xfb, 0xfe, 0xf6, 0x2d, 0xf3, 0x1d, 0xea, 0xfb, 0xfd, 0x00, 0x0d, 0x03,
  0x03, 0x04, 0x02, 0xf4, 0x05, 0x03, 0xfe, 0x00, 0x07, 0x00, 0x01, 0x01,
  0x06, 0x04, 0xf7, 0x06, 0xf4, 0x0c, 0x04, 0x02, 0xfb, 0x06, 0xf8, 0xfc,
  0xf5, 0xf8, 0x0a, 0xf8, 0xfe, 0x02, 0xfa, 0xff, 0xf4, 0x0c, 0xf3, 0x0d,
  0x04, 0xf7, 0xf4, 0xff, 0x04, 0x04, 0x08, 0x00, 0x07, 0x01, 0x05, 0x0b,
  0x06, 0x04, 0xf8, 0xff, 0xf5, 0xff, 0xf4, 0xf7, 0x00, 0x01, 0x07, 0x07,
  0x02, 0x10, 0xfe, 0xf7, 0xd5, 0xc9, 0x15, 0xd5, 0xa6, 0x1f, 0xfd, 0x24,
  0xe2, 0x02, 0x05, 0x23, 0xf2, 0xf5, 0x28, 0xfe, 0xeb, 0xcd, 0x2d, 0xf6,
  0x02, 0x16, 0xde, 0xe1, 0xe8, 0x8b, 0x0e, 0x25, 0xfc, 0xf8, 0xf9, 0xfb,
  0x00, 0x09, 0xfd, 0xfd, 0xfa, 0x0b, 0xf3, 0x01, 0xfe, 0xf9, 0x02, 0xf7,
  0x0c, 0x05, 0xf3, 0x08, 0xfb, 0xf6, 0x07, 0x01, 0xfd, 0xf9, 0xfd, 0x06,
  0x06, 0xf4, 0x0a, 0xfa, 0x00, 0x0e, 0xf9, 0xf2, 0x00, 0xf5, 0x00, 0xf3,
  0x07, 0x0e, 0xf4, 0xf0, 0xf7, 0x0a, 0x09, 0x09, 0xf9, 0x0c, 0xf7, 0x00,
  0x09, 0xf2, 0x0f, 0xf4, 0x05, 0x10, 0xfa, 0xf6, 0xf1, 0xfe, 0x03, 0xfc,
  0x0c, 0x08, 0x01, 0xf7, 0x02, 0xfa, 0xb5, 0x08, 0xcd, 0x00, 0x16, 0x30,
  0x1f, 0x35, 0xe3, 0x37, 0xd6, 0xdd, 0x00, 0x1f, 0xf0, 0x28, 0x9f, 0xf2,
  0x68, 0xfd, 0x07, 0x09, 0xe8, 0x20, 0xea, 0x29, 0xfb, 0xf6, 0xff, 0x0e,
  0xfc, 0xf3, 0xf1, 0x01, 0x06, 0x04, 0x0b, 0x00, 0x0c, 0x09, 0xf6, 0x08,
  0x0e, 0xff, 0x03, 0x07, 0x01, 0x02, 0xf9, 0x05, 0xf3, 0x01, 0x0c, 0xff,
  0x02, 0xf6, 0x01, 0x03, 0x0e, 0xf2, 0xfa, 0x0c, 0xf8, 0x09, 0xf8, 0x0a,
  0x05, 0xf6, 0xf3, 0x0c, 0x08, 0x0b, 0xf1, 0x0f, 0xfb, 0xf7, 0xf2, 0x00,
  0x0c, 0xfa, 0x05, 0x10, 0x05, 0x00, 0x0c, 0x0a, 0x0a, 0x00, 0xf9, 0x0d,
  0x1c, 0xe0, 0x18, 0xf0, 0xc6, 0x1e, 0x93, 0xd6, 0xdf, 0x35, 0xf2, 0x91,
  0xd2, 0xb5, 0xf2, 0x81, 0x3e, 0x28, 0x6b, 0x1c, 0xa6, 0x36, 0xc2, 0x07,
  0xe3, 0xd3, 0x37, 0xef, 0x3b, 0x4e, 0xf6, 0x38, 0xf6, 0xf7, 0x01, 0xff,
  0x0d, 0xf5, 0x0a, 0xf6, 0xf0, 0x02, 0xff, 0x0c, 0xf0, 0x03, 0x10, 0xfc,
  0x09, 0x10, 0xf6, 0x01, 0x04, 0x08, 0x08, 0x05, 0xf9, 0x00, 0x0d, 0xf2,
  0x07, 0x08, 0xfd, 0xf9, 0x04, 0x0c, 0xf2, 0xff, 0xf6, 0xfa, 0x0a, 0xf0,
  0x04, 0x0c, 0x0c, 0x01, 0xfd, 0x0b, 0x01, 0x0f, 0x01, 0xfd, 0x10, 0xfb,
  0xf5, 0x0c, 0x0c, 0x09, 0xf0, 0x01, 0x0c, 0x0c, 0x01, 0xf4, 0x0b, 0x0c,
  0xf9, 0xda, 0xeb, 0x01, 0x2d, 0x15, 0xce, 0xdf, 0x2e, 0xe0, 0x12, 0x09,
  0xfe, 0x3b, 0xfc, 0x06, 0x02, 0x0b, 0xd2, 0x28, 0x15, 0x1d, 0xc5, 0xfa,
  0xf5, 0xe7, 0x01, 0xf9, 0x1a, 0x47, 0xd7, 0xe7, 0xf3, 0x0c, 0xfa, 0x03,
  0x07, 0x0a, 0xfb, 0xfb, 0x01, 0x0d, 0xf0, 0x0d, 0xfe, 0xf9, 0xf5, 0xf1,
  0xff, 0x09, 0x10, 0x0d, 0xff, 0x0b, 0x08, 0x09, 0xf7, 0xfb, 0x0e, 0xf2,
  0xf3, 0x03, 0x01, 0xff, 0x07, 0xfd, 0xf1, 0xf2, 0xf0, 0x04, 0xf4, 0xf0,
  0xf1, 0xfb, 0x0c, 0xfe, 0xf4, 0xfb, 0x09, 0xf4, 0xfd, 0x09, 0xfd, 0x02,
  0xf8, 0x00, 0xfd, 0xfd, 0x07, 0x00, 0xf3, 0x07, 0xf5, 0xf4, 0x0a, 0xf2,
  0xfa, 0xc3, 0x1b, 0x13, 0x06, 0xf1, 0xf7, 0xdd, 0xfc, 0x3d, 0xdb, 0xf9,
  0xfa, 0x06, 0xf7, 0xfe, 0xf3, 0x15, 0x48, 0xe8, 0xbf, 0xda, 0xe0, 0xb1,
  0xbc, 0x20, 0x47, 0x24, 0xd9, 0xf4, 0x15, 0x2d, 0xf2, 0xf8, 0x09, 0x0c,
  0xfc, 0x00, 0x04, 0xf8, 0xfa, 0x09, 0x08, 0xf7, 0x05, 0x0a, 0xfd, 0xf8,
  0xf7, 0xf4, 0xf2, 0x03, 0x0c, 0x09, 0x0e, 0xf7, 0xf6, 0xfa, 0x0b, 0xf8,
  0x0e, 0x03, 0xf9, 0x0a, 0x09, 0xfa, 0xf4, 0x0f, 0x00, 0xfb, 0xf6, 0xfc,
  0x00, 0x0d, 0x02, 0xf1, 0xf5, 0x0d, 0x07, 0x0e, 0xf4, 0x04, 0xfd, 0xf4,
  0xfc, 0x0a, 0xf1, 0xf7, 0x02, 0xf3, 0x10, 0x06, 0xfe, 0x0d, 0x10, 0x09,
  0x28, 0xf0, 0xfb, 0xee, 0x09, 0x3d, 0x13, 0x22, 0x7f, 0xd9, 0xe3, 0x04,
  0x2b, 0x15, 0x0e, 0xf8, 0x07, 0xf0, 0xd8, 0xf4, 0xf6, 0x54, 0x19, 0x42,
  0xd7, 0xed, 0xfd, 0x97, 0x45, 0x29, 0x05, 0xd5, 0xf9, 0x09, 0x04, 0x03,
  0xfc, 0xf9, 0x0d, 0x02, 0xf1, 0x0e, 0x05, 0x01, 0x05, 0xfd, 0x10, 0xfe,
  0xf8, 0x09, 0xf8, 0x0a, 0x01, 0x07, 0xf6, 0x0b, 0xfb, 0xf7, 0x01, 0xfa,
  0xf2, 0x0c, 0x01, 0x0a, 0x06, 0xfd, 0xf1, 0xff, 0x00, 0xff, 0x06, 0xfe,
  0x07, 0xfd, 0x06, 0xff, 0xf9, 0x04, 0x0e, 0xfa, 0x07, 0x00, 0x0a, 0x01,
  0xf1, 0x08, 0xf5, 0x09, 0x0a, 0xfc, 0xf5, 0xff, 0xf4, 0xf8, 0x07, 0xf5,
  0xc9, 0xff, 0xc9, 0xc9, 0xea, 0xc2, 0xb2, 0xde, 0x02, 0xe4, 0xf6, 0xe2,
  0xfe, 0xc4, 0xcb, 0xdc, 0x9c, 0xc9, 0x9a, 0xea, 0xa6, 0xd5, 0xcd, 0xd7,
  0xc2, 0xd1, 0xce, 0xe3, 0xd5, 0xef, 0x9c, 0xa7, 0x00, 0xf3, 0x07, 0x09,
  0x05, 0xf1, 0xf1, 0xf8, 0xf9, 0xf6, 0x00, 0x01, 0xf1, 0x03, 0x0b, 0x07,
  0x06, 0x0f, 0xf5, 0xf6, 0xf6, 0x0b, 0x0d, 0x01, 0xf5, 0xf9, 0xf9, 0xfe,
  0x06, 0x09, 0xf7, 0x01, 0xf8, 0x09, 0xf7, 0xfd, 0x08, 0x0a, 0xf4, 0x02,
  0x0a, 0x06, 0x0b, 0xf3, 0xfb, 0xff, 0xf3, 0xfe, 0xfe, 0xf1, 0xf1, 0xf4,
  0x0f, 0x0c, 0xf2, 0xfb, 0x0d, 0xf3, 0x04, 0x06, 0xf6, 0xf3, 0x0c, 0xfb,
  0x0e, 0xb8, 0x7f, 0x40, 0xd8, 0xfd, 0xbd, 0xb4, 0xe9, 0x43, 0x00, 0x00,
  0x94, 0xdd, 0x30, 0xe4, 0x25, 0x22, 0x23, 0x4b, 0xbd, 0xfb, 0xb2, 0xff,
  0x03, 0x1e, 0x54, 0x06, 0xf5, 0xe3, 0x44, 0x27, 0x01, 0x0d, 0x03, 0x0a,
  0xf9, 0xfc, 0xf5, 0x09, 0x0d, 0xff, 0x09, 0x07, 0xfb, 0xfa, 0x0d, 0xf2,
  0xf6, 0x0d, 0x01, 0xf3, 0x06, 0xff, 0xfe, 0xf5, 0x00, 0xff, 0xf9, 0xfe,
  0x00, 0xf1, 0xf3, 0xf4, 0xf4, 0xfa, 0xf4, 0x04, 0xfe, 0x02, 0x0d, 0xff,
  0xf2, 0x0a, 0xf8, 0x04, 0x07, 0xfd, 0x04, 0xfb, 0x0f, 0x03, 0x0e, 0xff,
  0xf4, 0xf2, 0x01, 0xfd, 0x07, 0x09, 0xfb, 0x04, 0x09, 0x0a, 0xf6, 0xf2,
  0x34, 0xcb, 0x20, 0x17, 0xcc, 0x1a, 0xe6, 0xe4, 0x37, 0x0b, 0xfe, 0xec,
  0x18, 0x14, 0x26, 0xf2, 0x05, 0x21, 0x18, 0x26, 0xe1, 0x3e, 0xfa, 0x0a,
  0x0a, 0xf8, 0x00, 0xc2, 0x74, 0x0b, 0xf3, 0xc8, 0x0e, 0x05, 0x0d, 0xf5,
  0xfc, 0xfc, 0x05, 0xf6, 0xfe, 0x03, 0xf2, 0xf5, 0x0d, 0x06, 0xf6, 0x0d,
  0xfe, 0x05, 0xf5, 0xfa, 0x06, 0xfc, 0x00, 0xfc, 0xfe, 0xfd, 0x0a, 0xfe,
  0xfc, 0xf5, 0x02, 0x05, 0xf7, 0xf2, 0x0f, 0x03, 0x06, 0x01, 0x09, 0x0f,
  0x0a, 0x09, 0x03, 0xf9, 0xf2, 0xfe, 0x04, 0xf2, 0x0e, 0x03, 0x0e, 0xf5,
  0x02, 0x04, 0xfe, 0x04, 0xf1, 0x0e, 0xf2, 0xfa, 0x05, 0xfc, 0x06, 0x06,
  0xc8, 0xd0, 0xec, 0xd9, 0xe7, 0x37, 0xfe, 0x17, 0xe4, 0xbe, 0x25, 0x2e,
  0xef, 0xfd, 0xe0, 0x3c, 0x2d, 0xcf, 0xfd, 0x0a, 0xe7, 0x1a, 0x17, 0x21,
  0x26, 0xe9, 0xd8, 0x08, 0xd1, 0xe8, 0xe9, 0x1f, 0x0e, 0x06, 0xf3, 0xfd,
  0xf8, 0x0d, 0xf1, 0xfa, 0x07, 0x0b, 0xf4, 0x0e, 0x05, 0xfa, 0x0f, 0x00,
  0x0d, 0x07, 0x01, 0xf3, 0x02, 0x0d, 0x03, 0xf7, 0x02, 0x05, 0xfb, 0xf2,
  0xf7, 0xf2, 0xf5, 0xfc, 0xff, 0xfe, 0xff, 0x08, 0xfb, 0xfb, 0x04, 0xfc,
  0x09, 0x05, 0x0a, 0x08, 0xfe, 0x00, 0xf7, 0xfb, 0xfe, 0xf5, 0xf8, 0x06,
  0xfe, 0xf7, 0xfc, 0x00, 0xfa, 0x00, 0x04, 0xf7, 0xf7, 0xfd, 0xfe, 0xfd,
  0x0a, 0xe2, 0x7f, 0x18, 0xf4, 0xf8, 0xf5, 0x00, 0xf6, 0x29, 0x20, 0x20,
  0xe6, 0xc6, 0x0a, 0x1e, 0xf2, 0x30, 0x10, 0x3c, 0xc1, 0x26, 0xbb, 0x1e,
  0x26, 0x33, 0x1d, 0xef, 0xed, 0x10, 0x1c, 0x38, 0x0a, 0x02, 0xf6, 0xf8,
  0x05, 0xfb, 0xfd, 0xff, 0x05, 0xf9, 0x0a, 0x06, 0xf9, 0x04, 0xfb, 0xf7,
  0x0b, 0x08, 0xfc, 0x00, 0xf6, 0x01, 0x0b, 0x0a, 0x0a, 0xfa, 0x0b, 0xf6,
  0xfc, 0xfc, 0xfa, 0x08, 0x03, 0x0a, 0xff, 0xfd, 0x09, 0x02, 0xf6, 0x03,
  0x02, 0xf9, 0xfe, 0x01, 0xff, 0xf7, 0xfb, 0x09, 0xfb, 0x05, 0x09, 0xfe,
  0x04, 0xf6, 0x08, 0x08, 0xff, 0x03, 0x0a, 0xfe, 0xff, 0x00, 0x05, 0xf7,
  0x11, 0xcf, 0x1d, 0x07, 0xfc, 0x21, 0xdf, 0xf9, 0x16, 0x01, 0xe5, 0xe0,
  0xff, 0x1d, 0x04, 0xeb, 0x03, 0x0d, 0x1a, 0x10, 0xd3, 0x37, 0x07, 0x13,
  0x02, 0x02, 0x0a, 0xff, 0x3c, 0x31, 0xe6, 0xfc, 0xf9, 0x08, 0x03, 0x07,
  0xfb, 0x09, 0x0b, 0x09, 0xfd, 0x0a, 0xfd, 0x01, 0x04, 0x0a, 0x09, 0xf7,
  0xfa, 0xf7, 0x02, 0xfe, 0xf8, 0x0a, 0x0a, 0xff, 0x05, 0xf6, 0xf8, 0xfc,
  0xf6, 0xfd, 0xf6, 0x02, 0x03, 0x04, 0x03, 0x03, 0x05, 0x06, 0x05, 0x00,
  0x06, 0x01, 0x07, 0x07, 0xfa, 0xfc, 0x07, 0xff, 0x00, 0x0b, 0x0a, 0x08,
  0xf8, 0xfa, 0xf8, 0xfd, 0x0a, 0xfa, 0x04, 0x05, 0x0a, 0xfc, 0xfc, 0x0a,
  0xe9, 0xc2, 0x05, 0x10, 0x01, 0xf8, 0xd5, 0x17, 0x03, 0xc9, 0x17, 0x1d,
  0x2d, 0x11, 0xed, 0x0e, 0x22, 0xe5, 0xee, 0xed, 0xf3, 0x1d, 0xfc, 0x1a,
  0xeb, 0xf3, 0x11, 0x01, 0xf8, 0x16, 0xec, 0x03, 0x00, 0x07, 0xf8, 0x04,
  0xfa, 0xfb, 0x02, 0xf9, 0x07, 0x00, 0x07, 0x03, 0xf5, 0x07, 0xf8, 0x02,
  0x09, 0xff, 0xf9, 0xfd, 0x06, 0x0b, 0xfd, 0xfd, 0x02, 0xf7, 0x06, 0x0a,
  0xf8, 0x03, 0x03, 0x06, 0x09, 0xfd, 0xf8, 0x0a, 0xf6, 0x0b, 0x0a, 0x0c,
  0x05, 0x00, 0x08, 0x08, 0xfa, 0x06, 0xfa, 0xf2, 0x05, 0xff, 0xf4, 0xf2,
  0xf2, 0x0b, 0xfe, 0xfc, 0xf9, 0xf7, 0x00, 0x0e, 0xf7, 0xff, 0x06, 0xf2,
  0x1f, 0xfd, 0xf0, 0x28, 0x36, 0xf5, 0xcc, 0x45, 0xf0, 0xf4, 0xfd, 0xfd,
  0x42, 0x59, 0x08, 0xc1, 0x0f, 0xdb, 0xde, 0xc4, 0x59, 0xc9, 0xde, 0xd9,
  0xc6, 0x00, 0x36, 0xea, 0x12, 0x3b, 0x05, 0xef, 0x0b, 0x02, 0xfc, 0xfc,
  0xfa, 0xfb, 0x0c, 0x0b, 0x07, 0x05, 0x01, 0xf3, 0xf4, 0x08, 0xf9, 0x03,
  0x03, 0xf5, 0xf7, 0xfb, 0xf4, 0x0b, 0xfb, 0xf4, 0x03, 0x09, 0xfb, 0xf6,
  0x0a, 0x07, 0x08, 0xf6, 0x06, 0x0a, 0x05, 0xf9, 0xf6, 0x04, 0xf6, 0xf8,
  0xfd, 0xfd, 0xff, 0x04, 0xf4, 0x01, 0x09, 0xf8, 0x09, 0x05, 0x01, 0xf9,
  0xfc, 0x0d, 0xf6, 0x04, 0x03, 0x02, 0xfe, 0xfa, 0x01, 0xfa, 0xfa, 0xfa,
  0x09, 0x1d, 0x30, 0x1e, 0x3c, 0xdc, 0xfc, 0x42, 0xd8, 0x04, 0x0f, 0xfd,
  0x06, 0xf4, 0x10, 0xf6, 0x12, 0xf8, 0x05, 0xc6, 0x10, 0xdf, 0xc9, 0x0a,
  0xda, 0x15, 0x1a, 0xfc, 0x02, 0x0e, 0x1c, 0x0f, 0xfb, 0x0d, 0x00, 0xfb,
  0xfb, 0x09, 0x03, 0x01, 0xf7, 0x02, 0x05, 0x03, 0x0c, 0xfe, 0x00, 0xf8,
  0xf2, 0x04, 0xfb, 0xfe, 0xfb, 0x0c, 0x01, 0xf3, 0xfc, 0xf8, 0xff, 0xf7,
  0x0a, 0xf5, 0x03, 0x0d, 0xf5, 0xf1, 0x01, 0xf4, 0x06, 0xf4, 0x05, 0x05,
  0xf5, 0xfc, 0x0b, 0xf7, 0x0a, 0xff, 0x05, 0x0b, 0xf7, 0xf8, 0x0d, 0xf9,
  0xf3, 0xfd, 0xfb, 0xf9, 0x08, 0x0e, 0xfe, 0xf7, 0x0b, 0x0f, 0xf6, 0xfd,
  0x37, 0x7f, 0x4b, 0x24, 0x37, 0x1d, 0x30, 0x33, 0x09, 0x16, 0x0c, 0x23,
  0x5f, 0x26, 0x23, 0x20, 0x18, 0x0a, 0x0e, 0x31, 0x36, 0x09, 0x39, 0x22,
  0x60, 0x12, 0x30, 0x0b, 0x36, 0xe1, 0x2e, 0x12, 0x04, 0x0b, 0x01, 0x04,
  0xf4, 0x04, 0xfb, 0x03, 0x0f, 0x06, 0xf7, 0xfb, 0x02, 0xfb, 0x09, 0xfb,
  0xf4, 0xf6, 0xf2, 0xf5, 0xf5, 0xf9, 0xfc, 0x02, 0xf2, 0x02, 0x00, 0xff,
  0x0a, 0x0a, 0x0b, 0xfc, 0x06, 0x0a, 0x02, 0xf5, 0x03, 0xf9, 0x01, 0xff,
  0x01, 0xfc, 0x07, 0x0c, 0x01, 0xfa, 0xf8, 0xfb, 0x09, 0xfe, 0xff, 0x04,
  0xf5, 0xfb, 0xfc, 0x03, 0xfe, 0xff, 0x07, 0xfd, 0xf5, 0xfb, 0xf7, 0x00,
  0x12, 0xf6, 0xfa, 0x2a, 0xf8, 0xc3, 0xef, 0xd7, 0x48, 0xfa, 0xd0, 0xfb,
  0x25, 0x16, 0xfe, 0xe2, 0x02, 0xea, 0xea, 0x18, 0x15, 0xe4, 0xdf, 0x12,
  0x86, 0xe3, 0x04, 0x2f, 0x07, 0x0e, 0x1b, 0xc4, 0xfa, 0xf4, 0x0c, 0xf8,
  0xfe, 0xf5, 0x09, 0xf8, 0xf8, 0xf4, 0x05, 0x07, 0x03, 0xf7, 0xf7, 0xf6,
  0x08, 0x02, 0xf9, 0x04, 0xfc, 0xf6, 0xf8, 0xf6, 0x0c, 0x00, 0xfb, 0x01,
  0xff, 0x01, 0xf5, 0xff, 0xf9, 0x05, 0x06, 0xfa, 0x05, 0xfe, 0x0c, 0x04,
  0xf8, 0xf6, 0xf5, 0xfa, 0xfc, 0x03, 0x08, 0xf6, 0xfb, 0x08, 0x06, 0xf9,
  0x02, 0xfb, 0x07, 0xf6, 0x00, 0x04, 0x01, 0x06, 0x09, 0x04, 0x04, 0x0c,
  0x04, 0x53, 0x1e, 0xde, 0x08, 0xf3, 0xf8, 0x17, 0x0e, 0xdd, 0x15, 0x1e,
  0x11, 0x3a, 0x08, 0x48, 0xe7, 0xea, 0x03, 0xf2, 0x1a, 0x17, 0x15, 0x11,
  0x1e, 0xde, 0x0e, 0xc3, 0x49, 0x03, 0x05, 0xcf, 0xfe, 0xf5, 0xf9, 0xfd,
  0xfa, 0x0b, 0x02, 0x09, 0xfc, 0x0c, 0x01, 0xfe, 0xf5, 0xfa, 0x06, 0xfb,
  0xfd, 0xf9, 0x04, 0xf9, 0xfc, 0xf5, 0xfc, 0x09, 0xfa, 0x04, 0x09, 0xf8,
  0xf4, 0x0b, 0xfd, 0xf7, 0xf6, 0x04, 0xf7, 0xfc, 0xf8, 0x05, 0x03, 0xff,
  0x09, 0xfd, 0xf6, 0xfd, 0x01, 0xf9, 0x02, 0x0b, 0x07, 0x0a, 0x0b, 0xfd,
  0xf7, 0x0d, 0x05, 0xf5, 0x0d, 0x00, 0xfa, 0xf7, 0xfb, 0x0b, 0xf3, 0xfc,
  0xe2, 0x32, 0x1b, 0xef, 0x50, 0x23, 0x17, 0x7f, 0xfc, 0x00, 0x1f, 0x30,
  0xfd, 0xf1, 0xe0, 0x42, 0x07, 0xef, 0x02, 0x17, 0x0e, 0x03, 0x1d, 0x27,
  0x1d, 0x16, 0x31, 0x2b, 0x13, 0x30, 0xf3, 0x18, 0x04, 0x08, 0xff, 0x0a,
  0xfd, 0x07, 0xfc, 0xff, 0xfe, 0x09, 0xfd, 0xf9, 0x09, 0xfb, 0x02, 0x04,
  0x02, 0xf3, 0xf5, 0x04, 0xff, 0x03, 0x0d, 0xf5, 0xf4, 0xfb, 0xf9, 0xf6,
  0xfd, 0x07, 0x08, 0x05, 0xf2, 0x10, 0x03, 0x09, 0x04, 0xf1, 0xfa, 0x01,
  0xff, 0x08, 0xee, 0xf1, 0x12, 0xf3, 0xff, 0x0e, 0xf0, 0x02, 0x05, 0xf1,
  0x06, 0x09, 0xfb, 0xf3, 0x0b, 0x05, 0xf3, 0xf4, 0xf6, 0x0e, 0x07, 0xff,
  0x15, 0x1a, 0xa1, 0x1b, 0x38, 0x37, 0xf9, 0x62, 0x29, 0xb3, 0x17, 0x08,
  0x04, 0x41, 0x0a, 0xf6, 0xe9, 0xea, 0xd6, 0xb1, 0xf4, 0xf0, 0x81, 0xe1,
  0x00, 0xfd, 0xf6, 0x1a, 0x27, 0x65, 0xb7, 0xd7, 0x02, 0xf9, 0xfe, 0xf1,
  0x04, 0xf8, 0x0d, 0x13, 0xfa, 0xf2, 0xfd, 0xf0, 0x0d, 0xee, 0xf5, 0xee,
  0x01, 0xf3, 0xfa, 0xf0, 0xf1, 0xf1, 0x00, 0x0a, 0x12, 0x0a, 0xf8, 0xfe,
  0x09, 0xf0, 0x08, 0x11, 0x05, 0x00, 0xf7, 0x12, 0x0e, 0xf1, 0x10, 0x09,
  0xf3, 0xee, 0xed, 0x03, 0x12, 0xef, 0x0f, 0xf0, 0x0b, 0x12, 0xf7, 0x12,
  0x0d, 0xf8, 0xf4, 0x0e, 0x0d, 0x0b, 0x02, 0x06, 0xf7, 0xfd, 0x0c, 0x00,
  0xe4, 0xcc, 0xf3, 0x0d, 0xb9, 0xd2, 0x12, 0xaa, 0xc0, 0x22, 0x07, 0x27,
  0x08, 0xe9, 0xf4, 0x33, 0x38, 0xdb, 0xf3, 0x0a, 0x03, 0x12, 0x03, 0x40,
  0x1c, 0x34, 0xff, 0xf7, 0xa8, 0x93, 0x29, 0x36, 0xf6, 0x05, 0xfd, 0xf7,
  0x0b, 0x08, 0xfa, 0xf6, 0xf0, 0x05, 0xf8, 0xef, 0x09, 0x07, 0x0e, 0x0d,
  0x0f, 0x08, 0x09, 0x12, 0xfc, 0x0e, 0x05, 0xf6, 0x12, 0x10, 0xf0, 0x11,
  0xef, 0x00, 0xef, 0x02, 0x04, 0x08, 0xf0, 0xf3, 0xed, 0x0e, 0xf6, 0x0d,
  0x0c, 0x02, 0xf3, 0xfd, 0xef, 0x09, 0x0c, 0xee, 0xf8, 0xf8, 0x01, 0xff,
  0x0d, 0x13, 0xf5, 0xf2, 0x01, 0xf9, 0x0d, 0x00, 0xfd, 0x03, 0x00, 0x13,
  0xfa, 0x22, 0xb8, 0xe5, 0xf1, 0xb5, 0xa8, 0xee, 0xdd, 0x5b, 0xd8, 0xaa,
  0xbd, 0xe9, 0x09, 0x9f, 0xd9, 0x05, 0xcd, 0xf5, 0x1a, 0x01, 0xc5, 0xd1,
  0xb7, 0x13, 0x9e, 0xae, 0xf6, 0x33, 0xeb, 0xa5, 0x09, 0x0e, 0xf7, 0x03,
  0x03, 0xee, 0xf3, 0x10, 0xf1, 0xf8, 0xfc, 0xfd, 0x11, 0x0c, 0xf5, 0xfa,
  0xff, 0x11, 0x12, 0xf6, 0xee, 0x0c, 0x06, 0x02, 0xf8, 0x06, 0x01, 0xf3,
  0xf0, 0x04, 0x04, 0x0d, 0x06, 0xf2, 0x09, 0xfe, 0x05, 0xf6, 0x02, 0x05,
  0x0d, 0x11, 0x0a, 0x11, 0xf2, 0x0d, 0xf4, 0xf2, 0xfd, 0xee, 0x0a, 0x0f,
  0xf5, 0x0d, 0xfe, 0xf8, 0xfa, 0x0a, 0x00, 0xfb, 0xfb, 0x04, 0x08, 0xfb,
  0x1c, 0xfa, 0x1b, 0xf9, 0xe4, 0x27, 0x4e, 0xf4, 0x44, 0x44, 0xd3, 0xee,
  0xe8, 0xb4, 0x22, 0x15, 0x1f, 0x0c, 0x3e, 0x10, 0x0d, 0x39, 0x75, 0x10,
  0xe9, 0xe0, 0x98, 0x4c, 0x0d, 0xcd, 0x28, 0x00, 0x03, 0x09, 0xf4, 0x0b,
  0xf7, 0xf0, 0x01, 0x04, 0x08, 0x02, 0xfa, 0xf9, 0xf5, 0x03, 0x0b, 0xfc,
  0xfa, 0xf9, 0xee, 0x11, 0x07, 0x0b, 0xfb, 0xee, 0xfe, 0x0b, 0x04, 0xf4,
  0xf8, 0xf0, 0x0b, 0x00, 0xf5, 0xfb, 0x04, 0x10, 0x10, 0x0b, 0xf1, 0x10,
  0xfe, 0xff, 0x07, 0xf0, 0xf2, 0x05, 0x0e, 0x07, 0xf4, 0x0e, 0xff, 0x0e,
  0x05, 0x01, 0x0c, 0x02, 0x06, 0xf2, 0x00, 0xf4, 0x07, 0x0a, 0x06, 0x12,
  0xc6, 0x24, 0xac, 0x81, 0xd7, 0xd0, 0xee, 0xf0, 0xa5, 0xfb, 0xea, 0x13,
  0xcf, 0x0a, 0xda, 0x3d, 0x99, 0x8f, 0xc9, 0x93, 0x2e, 0xbc, 0xe8, 0xba,
  0xb9, 0xeb, 0xd5, 0x0c, 0xf4, 0x94, 0xd8, 0xab, 0xf1, 0xee, 0x0e, 0x08,
  0xf2, 0xf6, 0xf8, 0x00, 0x07, 0x0b, 0x0f, 0x0c, 0x0e, 0xf4, 0x10, 0x04,
  0xfe, 0xf9, 0x00, 0x00, 0xf1, 0xf9, 0x0f, 0x09, 0xfe, 0xfd, 0x07, 0xf8,
  0xef, 0xff, 0x07, 0xf0, 0xfb, 0x02, 0x06, 0x0e, 0xfe, 0xfc, 0x11, 0xf3,
  0x05, 0xf9, 0x12, 0xf2, 0x0c, 0x03, 0x0c, 0x00, 0x02, 0x03, 0xfc, 0x10,
  0x02, 0xf6, 0x0a, 0xfe, 0x0e, 0xf0, 0xf0, 0xfe, 0x09, 0x06, 0x04, 0x05,
  0xec, 0x59, 0x2b, 0x0a, 0xb9, 0x0a, 0x1e, 0xac, 0x26, 0x0b, 0xf8, 0xe6,
  0x03, 0x02, 0xe5, 0x14, 0xda, 0xf2, 0x42, 0x1f, 0x24, 0xbf, 0x24, 0xe4,
  0xe6, 0xe0, 0x1e, 0x36, 0x21, 0xc6, 0x48, 0x07, 0xef, 0xfb, 0x00, 0xf2,
  0xff, 0xfd, 0xfc, 0xfa, 0x05, 0x06, 0xf2, 0xfb, 0xff, 0x0a, 0xf4, 0x07,
  0x03, 0xf3, 0x00, 0x02, 0xf0, 0x06, 0x0f, 0xf9, 0x12, 0xee, 0x04, 0x11,
  0xf2, 0x09, 0xf8, 0xf2, 0xf0, 0xf7, 0xfb, 0x01, 0x09, 0x0b, 0x11, 0xff,
  0x00, 0x02, 0x0b, 0x04, 0x05, 0x09, 0x0a, 0xf7, 0x04, 0xf2, 0xfa, 0x04,
  0x0e, 0xf8, 0xf0, 0x11, 0x13, 0xfe, 0xf3, 0xfa, 0xfe, 0x09, 0xf4, 0x10,
  0x07, 0xea, 0x82, 0xf2, 0x31, 0x17, 0xfd, 0x54, 0x21, 0xbd, 0x1f, 0x4e,
  0x3e, 0x5d, 0xf5, 0xb4, 0xe0, 0xed, 0xd7, 0xd3, 0x24, 0xc6, 0xb5, 0xe1,
  0x93, 0xc1, 0x2d, 0x03, 0x03, 0x7f, 0xef, 0xd2, 0xff, 0x0b, 0x0e, 0xfc,
  0xef, 0x02, 0xf7, 0xfb, 0xf3, 0xf8, 0xfd, 0x05, 0xf2, 0x05, 0x06, 0x06,
  0xf8, 0xfd, 0x05, 0xf1, 0xf8, 0xee, 0x11, 0xf7, 0xf8, 0x13, 0x01, 0x13,
  0xf7, 0xf8, 0x0e, 0x03, 0xf5, 0xf8, 0x0e, 0x03, 0xf5, 0x0e, 0x0c, 0x06,
  0x03, 0xf2, 0xf9, 0xfa, 0x0b, 0xfc, 0x13, 0x0d, 0x0a, 0xed, 0xfd, 0x0d,
  0xf3, 0x04, 0xf2, 0xf7, 0xfd, 0xf7, 0xfd, 0x08, 0x11, 0x0b, 0xfa, 0xf9,
  0x29, 0x18, 0x2c, 0x2e, 0x62, 0xfd, 0x32, 0x65, 0xd4, 0x27, 0x10, 0xc0,
  0x1a, 0xe2, 0x02, 0xc3, 0x0f, 0xed, 0xfa, 0xb2, 0x44, 0xb3, 0xb0, 0xec,
  0xf9, 0x38, 0x25, 0x47, 0xd8, 0x2b, 0x1c, 0x35, 0x12, 0xf2, 0x0e, 0xf3,
  0xfb, 0x12, 0xed, 0xee, 0x0c, 0x07, 0xf5, 0x04, 0x09, 0x05, 0xef, 0x04,
  0xf5, 0x09, 0xf7, 0x02, 0xf6, 0xfb, 0xfd, 0xf0, 0xff, 0xfa, 0x08, 0xf6,
  0xf6, 0x11, 0xfe, 0x11, 0x04, 0xfc, 0xee, 0xfe, 0x0c, 0x11, 0xfd, 0xf6,
  0x05, 0xf5, 0x07, 0x12, 0xf3, 0x01, 0xfe, 0x08, 0x01, 0x01, 0x02, 0x0f,
  0xfc, 0xf7, 0x0f, 0xf7, 0xef, 0x10, 0x06, 0x0b, 0xf4, 0x0d, 0x03, 0x03,
  0x49, 0x5c, 0x33, 0x32, 0x44, 0xfe, 0x5b, 0x30, 0xee, 0x1a, 0x00, 0xf4,
  0x4f, 0x3a, 0x26, 0xf3, 0xfb, 0x16, 0x03, 0xf7, 0x20, 0xf9, 0x12, 0x03,
  0x66, 0x3b, 0x03, 0xcb, 0x53, 0xe2, 0x06, 0xeb, 0xf7, 0xfe, 0x13, 0x0f,
  0xf6, 0xf7, 0xf7, 0x02, 0x01, 0x01, 0xfe, 0x11, 0xee, 0x02, 0xf0, 0xf9,
  0xf2, 0xed, 0xff, 0x0d, 0x01, 0xed, 0x0d, 0xf2, 0xf7, 0xee, 0xf2, 0xed,
  0x0d, 0xf0, 0xf0, 0xf4, 0x0f, 0xf2, 0xfd, 0x07, 0xef, 0x06, 0xfc, 0xf2,
  0x0e, 0x0d, 0xf1, 0x10, 0x03, 0xfc, 0x06, 0xf3, 0xfb, 0xf1, 0xf4, 0x07,
  0xfa, 0xf2, 0xf5, 0x00, 0xfc, 0x03, 0xf9, 0x0d, 0xf4, 0xfa, 0x03, 0xf9,
  0xfb, 0xbc, 0xfb, 0x02, 0x1c, 0x00, 0x89, 0xf4, 0xc4, 0x2a, 0x24, 0x25,
  0x24, 0x43, 0xd7, 0x1d, 0xc4, 0xd6, 0x17, 0x04, 0xf3, 0x01, 0x86, 0xdf,
  0x52, 0x02, 0xf8, 0x09, 0xd1, 0x22, 0xfe, 0x3a, 0xfe, 0xff, 0x03, 0xf6,
  0xf9, 0x05, 0xfc, 0x04, 0xfe, 0x0c, 0xfe, 0xfe, 0x0b, 0xf4, 0xf5, 0xf6,
  0x00, 0x11, 0x0d, 0x03, 0x01, 0xf7, 0x11, 0xfc, 0xf4, 0x0e, 0xfe, 0xfc,
  0x10, 0xfc, 0x02, 0xef, 0xf7, 0x04, 0xfc, 0xf3, 0xfd, 0x04, 0xfa, 0xf1,
  0x11, 0xfe, 0x0e, 0x12, 0x0e, 0xf1, 0x08, 0x0d, 0x01, 0x04, 0xf3, 0xf8,
  0x0e, 0x00, 0xf6, 0x0a, 0xfd, 0x06, 0x10, 0xf0, 0x06, 0xf2, 0xf0, 0x0b,
  0x3a, 0xf3, 0x12, 0x37, 0xd3, 0x65, 0xc7, 0xca, 0x42, 0x4b, 0xf5, 0xbd,
  0xec, 0xd8, 0x25, 0x81, 0x34, 0x26, 0x5c, 0x4a, 0xbd, 0x45, 0xcf, 0xed,
  0xf1, 0xb1, 0x29, 0xbe, 0x33, 0x2b, 0x2c, 0x3f, 0x06, 0x00, 0x0c, 0x10,
  0x0d, 0x07, 0x0c, 0xf5, 0x0d, 0xfb, 0xf1, 0x05, 0xf4, 0xff, 0x08, 0x0a,
  0x02, 0xff, 0x10, 0xf1, 0x0a, 0xff, 0xfc, 0x0c, 0x0e, 0xff, 0xf3, 0x05,
  0x0d, 0xf0, 0xf1, 0xf2, 0x0a, 0xf2, 0xfb, 0x11, 0x09, 0x10, 0x08, 0xf0,
  0xf0, 0xf8, 0xf5, 0x09, 0x10, 0xf1, 0x03, 0xfc, 0xf8, 0x07, 0xf5, 0xfb,
  0xf8, 0x0d, 0xf7, 0x0b, 0x02, 0x0d, 0xf5, 0x0e, 0xf4, 0x08, 0xf2, 0xf1,
  0x0f, 0xc5, 0xf2, 0x0c, 0x2c, 0x41, 0xe5, 0xdd, 0x30, 0xf4, 0x0a, 0x33,
  0x13, 0x32, 0x04, 0x0b, 0x0f, 0x20, 0xf7, 0x49, 0x01, 0x4a, 0xd7, 0x13,
  0x22, 0xf8, 0xe6, 0x04, 0x2b, 0x41, 0x00, 0x21, 0xfa, 0x09, 0x0d, 0x01,
  0xf9, 0xfe, 0xfc, 0x04, 0x0c, 0xfd, 0x04, 0xf3, 0xf6, 0x0f, 0x0c, 0xf3,
  0xfd, 0x0e, 0xef, 0x0c, 0xfa, 0xf3, 0xf8, 0x03, 0x01, 0xfb, 0xef, 0xf5,
  0xf9, 0x09, 0x0f, 0x0c, 0xfc, 0x03, 0xf3, 0xf8, 0x02, 0x0d, 0x09, 0xf4,
  0x05, 0xef, 0xf7, 0xfa, 0xf1, 0x09, 0x10, 0x11, 0x03, 0x0d, 0xf0, 0xf4,
  0x09, 0xf2, 0xfa, 0x0d, 0x02, 0x0d, 0xf7, 0x09, 0xf7, 0x04, 0xf3, 0xfd,
  0x1f, 0xd0, 0xff, 0x02, 0x05, 0x06, 0x16, 0x50, 0xdf, 0xbe, 0x77, 0x11,
  0x32, 0x3a, 0x0c, 0x59, 0x31, 0xc3, 0xf1, 0xe1, 0xd6, 0xe8, 0xe3, 0x1d,
  0x56, 0x19, 0x15, 0xc9, 0xfc, 0xff, 0xf6, 0x19, 0x0d, 0x09, 0x12, 0xef,
  0xfc, 0xfe, 0xf9, 0x0a, 0x0c, 0x00, 0x00, 0x02, 0xf0, 0xef, 0xfc, 0xf3,
  0xf1, 0x0d, 0xf8, 0x12, 0xff, 0xfd, 0xfd, 0xf2, 0x02, 0x01, 0x0b, 0x0e,
  0xf1, 0xf2, 0xf9, 0xf4, 0xee, 0xfc, 0xf6, 0xfe, 0xf9, 0x03, 0xf5, 0x06,
  0xf1, 0xee, 0xee, 0xf3, 0x0e, 0xf0, 0xf6, 0x00, 0x0f, 0xf7, 0x07, 0x02,
  0x05, 0x0e, 0xf7, 0x10, 0x0a, 0xff, 0x00, 0x09, 0xf2, 0x0a, 0x11, 0xf5,
  0xee, 0x8a, 0xf3, 0xe8, 0xce, 0x11, 0xd1, 0x14, 0xd4, 0x27, 0x0f, 0x02,
  0xcd, 0xa5, 0xfe, 0xfe, 0x32, 0xcf, 0x24, 0x2e, 0xe5, 0xc7, 0xfa, 0x2d,
  0x15, 0xe4, 0xd6, 0xec, 0xc6, 0xee, 0x09, 0x38, 0xff, 0xf9, 0x05, 0xfc,
  0xf1, 0xff, 0x08, 0x0b, 0x10, 0x0d, 0xf9, 0x04, 0x0b, 0x06, 0xf8, 0xf6,
  0xf5, 0xef, 0xf2, 0xef, 0x06, 0x06, 0xfe, 0x02, 0xf6, 0xf4, 0x0e, 0x10,
  0x0e, 0x00, 0x10, 0xf7, 0x06, 0x0c, 0x10, 0x07, 0x0f, 0xfb, 0x06, 0xee,
  0xf1, 0x0c, 0x10, 0x02, 0x08, 0xf5, 0x0b, 0x10, 0xef, 0xee, 0xf5, 0xfa,
  0x07, 0xfc, 0x11, 0x0e, 0xfc, 0xf8, 0x08, 0x12, 0x08, 0x0b, 0x05, 0xf3,
  0x12, 0xf3, 0xb9, 0xf8, 0x03, 0xb0, 0xce, 0xa0, 0x23, 0x4b, 0xad, 0x91,
  0x95, 0xc4, 0x14, 0x81, 0xe9, 0x22, 0xd6, 0xef, 0x18, 0x03, 0xe4, 0xf0,
  0xbf, 0xed, 0x92, 0xd6, 0x00, 0xe8, 0x10, 0x9b, 0xef, 0x02, 0xf2, 0x0e,
  0x0b, 0x07, 0xf0, 0xf6, 0xf2, 0xf5, 0x08, 0x08, 0xfd, 0x10, 0x0f, 0x02,
  0x07, 0xf5, 0x06, 0x0c, 0xf2, 0x0a, 0xf4, 0xfc, 0xf8, 0x08, 0x04, 0x03,
  0xf7, 0x08, 0xef, 0xf3, 0x0a, 0x07, 0xff, 0x03, 0xfe, 0xfd, 0x01, 0x01,
  0x0e, 0x0a, 0xf8, 0xf5, 0x05, 0x04, 0xf2, 0x07, 0xf2, 0xfa, 0xfd, 0x0c,
  0x00, 0x10, 0xf6, 0x0f, 0xfa, 0x02, 0x02, 0xf3, 0xfd, 0x0e, 0xf4, 0xfc,
  0x11, 0xdc, 0x0a, 0xf8, 0x2d, 0x0f, 0x86, 0xeb, 0x91, 0x21, 0x49, 0x3e,
  0x1e, 0x41, 0xf7, 0x2c, 0xea, 0xf0, 0x27, 0xef, 0x07, 0xf4, 0x9f, 0x02,
  0x33, 0x52, 0x02, 0x01, 0xd2, 0x0e, 0x00, 0x3c, 0xf7, 0x0f, 0x0e, 0x0c,
  0xf1, 0xf4, 0x06, 0x0f, 0x0b, 0x07, 0x03, 0x0a, 0xf7, 0xf4, 0xff, 0xf9,
  0x0a, 0xf5, 0x0f, 0x03, 0x03, 0xfc, 0x0b, 0x02, 0x02, 0xf6, 0x06, 0xf9,
  0x0d, 0x0a, 0x02, 0x01, 0x08, 0xf6, 0xfe, 0x05, 0xfd, 0xfb, 0x0b, 0x0b,
  0x0b, 0xfb, 0x0f, 0xf2, 0xf7, 0xfa, 0x05, 0x01, 0xfa, 0x0d, 0xfe, 0xf4,
  0xf4, 0x0f, 0xff, 0xf5, 0x09, 0xf2, 0x05, 0xff, 0xf2, 0xfd, 0x03, 0xfd,
  0xf5, 0xe6, 0x07, 0xc2, 0x14, 0x49, 0xc7, 0x08, 0x2e, 0x00, 0x09, 0xee,
  0x1d, 0xed, 0xea, 0xc9, 0x0d, 0xe7, 0x23, 0x35, 0xf7, 0x7f, 0xfd, 0x48,
  0xf2, 0xbd, 0xdd, 0xea, 0x10, 0x3d, 0xee, 0x29, 0xfd, 0xf4, 0x0e, 0x0b,
  0x05, 0x0f, 0x04, 0x00, 0xf5, 0x03, 0x06, 0x09, 0xff, 0xf0, 0x0d, 0xf9,
  0xfa, 0x0f, 0xfe, 0x10, 0xfc, 0xf7, 0x00, 0xf1, 0xfc, 0xfb, 0xf0, 0x0e,
  0xfb, 0xf8, 0xf4, 0x0c, 0x06, 0x07, 0x0c, 0x0f, 0xff, 0xf5, 0xf9, 0xf4,
  0xf7, 0xf2, 0xf7, 0xf7, 0xfd, 0x03, 0xf1, 0xf7, 0xfc, 0x0c, 0x0a, 0xf7,
  0x0c, 0x04, 0x01, 0xfd, 0xf1, 0xfe, 0xfe, 0xf1, 0xf4, 0xf3, 0x02, 0x01,
  0x33, 0xe2, 0xbd, 0x27, 0x2a, 0x25, 0x14, 0x17, 0x25, 0xe2, 0x01, 0xf7,
  0x09, 0x35, 0x35, 0x0a, 0x14, 0x03, 0xec, 0x3c, 0xe4, 0x24, 0xd9, 0x02,
  0x0e, 0x1a, 0xc0, 0xf1, 0xdf, 0x2d, 0xfe, 0x1e, 0x01, 0x03, 0xf5, 0xfa,
  0x02, 0x05, 0x02, 0xf7, 0xf6, 0xf9, 0x09, 0x0b, 0xf9, 0x0f, 0x07, 0x0a,
  0xfb, 0xf8, 0xfc, 0x08, 0x10, 0xfa, 0x07, 0x06, 0xf1, 0xf7, 0x06, 0xff,
  0x0f, 0xf9, 0x0e, 0x04, 0xee, 0x00, 0x00, 0xf1, 0x0e, 0x11, 0x0c, 0xf2,
  0xf0, 0xf8, 0xf3, 0xee, 0x0d, 0xf6, 0x0c, 0xff, 0xfa, 0xf0, 0x05, 0x05,
  0x09, 0xf3, 0xff, 0x08, 0x05, 0x0c, 0xf1, 0x03, 0xfa, 0xf2, 0xf8, 0x03,
  0x30, 0xaf, 0x35, 0x30, 0x13, 0x12, 0x81, 0xea, 0xa9, 0x5c, 0x23, 0x6d,
  0xe7, 0x0a, 0x31, 0xdf, 0x0a, 0xe7, 0x26, 0xd4, 0xa1, 0xc0, 0x9c, 0xeb,
  0x0c, 0x58, 0x22, 0xd9, 0xeb, 0x0b, 0x2b, 0x3e, 0x10, 0xfc, 0x09, 0xf3,
  0x0b, 0x07, 0xee, 0xf2, 0xf3, 0xfb, 0x04, 0x0a, 0x0e, 0xf6, 0x03, 0x0e,
  0x06, 0x03, 0xfc, 0xff, 0xfe, 0xfb, 0xff, 0xff, 0xf0, 0xf0, 0xfa, 0xfa,
  0x11, 0x05, 0xf8, 0xfb, 0xf7, 0x0c, 0xff, 0xfe, 0xf0, 0x01, 0x0d, 0x10,
  0x03, 0x04, 0xf2, 0x09, 0x11, 0xfc, 0x02, 0xfe, 0xf7, 0x0c, 0x0e, 0xff,
  0xff, 0x0c, 0xf0, 0xf2, 0xfc, 0x07, 0xef, 0x11, 0x03, 0x03, 0x04, 0x06,
  0x62, 0xe3, 0x2d, 0x1d, 0x1a, 0x6d, 0xe5, 0xdb, 0x4b, 0xfa, 0x0f, 0xf8,
  0x12, 0x02, 0x30, 0xff, 0x34, 0x47, 0x16, 0x70, 0xc4, 0x3c, 0x01, 0x3a,
  0x43, 0xb6, 0xe4, 0x95, 0x49, 0x2c, 0x16, 0xe7, 0xff, 0xee, 0x0f, 0x02,
  0x04, 0x01, 0xee, 0xfe, 0x08, 0xf0, 0x0f, 0xf0, 0xf6, 0x0e, 0x0e, 0xfc,
  0xf5, 0x04, 0xf9, 0x11, 0xf1, 0xfd, 0x0e, 0xf1, 0xf8, 0x11, 0x09, 0x06,
  0x06, 0x0e, 0xf3, 0x01, 0xf0, 0xf3, 0x09, 0xfa, 0xf2, 0xef, 0x10, 0xfa,
  0xf1, 0xfc, 0xfd, 0xfc, 0xf7, 0xf3, 0x01, 0xf2, 0x0f, 0x0e, 0x04, 0x02,
  0x08, 0xee, 0x0e, 0xf4, 0x01, 0x0b, 0x12, 0x08, 0xfd, 0x0e, 0xf7, 0x10,
  0x05, 0xc4, 0xfe, 0xe9, 0x46, 0x65, 0xed, 0xf9, 0x2a, 0xd2, 0x1f, 0x3f,
  0x47, 0x4e, 0x08, 0x29, 0x20, 0xfc, 0xd5, 0x15, 0xf4, 0x64, 0xec, 0x1e,
  0x3b, 0x1e, 0xf3, 0xf1, 0x06, 0x3d, 0xeb, 0x1c, 0xf0, 0xf4, 0xf3, 0xf6,
  0x06, 0xef, 0xfa, 0x07, 0xf1, 0xf1, 0x0c, 0xf7, 0x12, 0x07, 0x02, 0x02,
  0x10, 0x00, 0x0b, 0xfc, 0xf7, 0xf6, 0x0b, 0xf0, 0xf5, 0xf9, 0xfd, 0xfc,
  0xf0, 0xf2, 0x0a, 0xf1, 0xf8, 0x0e, 0xfa, 0xfb, 0x11, 0x06, 0x08, 0xfc,
  0x12, 0xfc, 0x12, 0x06, 0x0d, 0x0e, 0x06, 0x06, 0x00, 0x10, 0xfc, 0x0a,
  0x09, 0x03, 0xfa, 0x0e, 0xfc, 0x06, 0xfa, 0x04, 0x12, 0xfa, 0x13, 0x07,
  0xfd, 0x1a, 0xfd, 0xbc, 0xf6, 0x0d, 0x63, 0x11, 0x50, 0x3b, 0xf2, 0x02,
  0x1b, 0xa7, 0xf5, 0x46, 0xf6, 0x1a, 0x08, 0x1c, 0x09, 0x69, 0x7d, 0x24,
  0xfd, 0xb7, 0x81, 0x34, 0x19, 0xd1, 0xf1, 0xcb, 0xfd, 0xfb, 0x13, 0xfb,
  0x03, 0x14, 0x06, 0x05, 0xf8, 0x13, 0x08, 0xf9, 0xed, 0x00, 0x0f, 0x08,
  0xf9, 0x04, 0xf1, 0x03, 0xfe, 0xf7, 0x05, 0x05, 0xed, 0xee, 0x08, 0x0d,
  0xef, 0xfd, 0xee, 0xf7, 0xf6, 0x13, 0x0b, 0x0f, 0x0f, 0xff, 0x01, 0xff,
  0x11, 0x0f, 0x0e, 0x00, 0xf6, 0x09, 0xf4, 0x09, 0xec, 0x03, 0xf8, 0x03,
  0xfd, 0x07, 0xef, 0x0d, 0xf9, 0xf8, 0x08, 0x10, 0xed, 0xf0, 0xfe, 0xf7,
  0xc7, 0x68, 0xc0, 0x98, 0xb6, 0xb9, 0xbe, 0xfc, 0xbd, 0x17, 0xea, 0xb3,
  0xc9, 0x1f, 0xb1, 0x04, 0x92, 0x83, 0x1b, 0x8e, 0x35, 0xc7, 0x08, 0xcc,
  0xff, 0x11, 0xf5, 0x54, 0xf5, 0xbd, 0xe7, 0xd4, 0xee, 0xef, 0xf8, 0x12,
  0x08, 0xef, 0x01, 0x0c, 0x12, 0x00, 0xf0, 0x0f, 0x0b, 0xef, 0xf4, 0xfa,
  0x02, 0x00, 0xfa, 0x08, 0x03, 0x08, 0xfc, 0x02, 0xf2, 0x14, 0xf9, 0x04,
  0x03, 0xfa, 0xf6, 0x0a, 0xf3, 0xf2, 0xf4, 0x0e, 0xfa, 0xfc, 0xf1, 0x06,
  0x11, 0x0c, 0xf8, 0x0f, 0xec, 0x0b, 0xf1, 0xef, 0x05, 0x08, 0xf5, 0x00,
  0x02, 0xfc, 0xf9, 0xf7, 0x0f, 0x00, 0xef, 0xee, 0xf9, 0x04, 0xfb, 0xf2,
  0xe6, 0x5b, 0x08, 0xea, 0x9f, 0xc7, 0x02, 0xb2, 0x19, 0x07, 0x05, 0xcb,
  0xf0, 0x03, 0xc1, 0xff, 0xd6, 0xeb, 0x04, 0x41, 0x22, 0x9d, 0x10, 0xe8,
  0xe9, 0xc4, 0xfe, 0x39, 0xfd, 0xcc, 0x40, 0xef, 0x03, 0xec, 0x04, 0x0d,
  0x06, 0x01, 0xee, 0x0e, 0xef, 0x06, 0xfc, 0x08, 0x05, 0x0c, 0xfa, 0xf6,
  0x08, 0x0b, 0x12, 0xef, 0x04, 0x07, 0xfe, 0xfe, 0x0f, 0x02, 0x02, 0xff,
  0x01, 0xfd, 0xee, 0xfd, 0xfc, 0xf8, 0xfa, 0xfa, 0xf5, 0x06, 0xf9, 0xf4,
  0xfc, 0x00, 0x0c, 0x06, 0x01, 0xf7, 0xf8, 0x04, 0xfa, 0xfe, 0x01, 0x0a,
  0x02, 0xf4, 0xf7, 0x04, 0xfb, 0x01, 0x0a, 0xf4, 0xfb, 0x09, 0xf8, 0xf7,
  0x09, 0xcb, 0x7f, 0x07, 0xfe, 0x32, 0x04, 0x13, 0x0d, 0x19, 0x18, 0x14,
  0xe2, 0xc5, 0x0d, 0x1f, 0xfb, 0x30, 0x28, 0x4f, 0xcc, 0x3c, 0xba, 0x1f,
  0x45, 0x12, 0xeb, 0xde, 0xeb, 0x1a, 0x1c, 0x31, 0xf4, 0x0b, 0x01, 0xf8,
  0xf6, 0x07, 0x05, 0x09, 0xfd, 0x04, 0xfe, 0x07, 0x00, 0xfb, 0x00, 0x07,
  0x08, 0xff, 0xf8, 0xfe, 0x01, 0x05, 0xfe, 0x01, 0x07, 0x06, 0x05, 0xf4,
  0xf7, 0x0c, 0xf3, 0xfa, 0x0b, 0x0c, 0x0c, 0x04, 0xfe, 0xfd, 0x07, 0xfd,
  0xfb, 0xf6, 0xf7, 0x0a, 0x01, 0xf9, 0x04, 0xf6, 0x00, 0x09, 0xfa, 0x09,
  0xf8, 0x04, 0xfc, 0xfd, 0xfb, 0xfb, 0xf4, 0xf5, 0xf9, 0xf5, 0x04, 0xfe,
  0x20, 0xae, 0x08, 0x1c, 0x02, 0x38, 0xf5, 0xed, 0x1a, 0x20, 0xec, 0xf3,
  0x13, 0x22, 0x05, 0xe8, 0xfd, 0x33, 0x38, 0x15, 0xd3, 0x2d, 0x05, 0x01,
  0xf7, 0x19, 0x0d, 0xfb, 0x30, 0x33, 0xed, 0x18, 0x03, 0xfc, 0xf5, 0x08,
  0xf5, 0xf6, 0xf9, 0xf4, 0x08, 0x00, 0x07, 0x0b, 0xf4, 0x0d, 0x06, 0x05,
  0x01, 0x0a, 0x04, 0x05, 0x01, 0xff, 0xfa, 0xf5, 0x04, 0xf4, 0x02, 0x0b,
  0xf5, 0x01, 0xf5, 0x02, 0xfc, 0xfb, 0x0c, 0x04, 0x0b, 0x09, 0x05, 0x02,
  0x08, 0x02, 0x06, 0x0c, 0x06, 0x0a, 0x08, 0xf4, 0x05, 0xf4, 0xff, 0x09,
  0x08, 0xf7, 0x05, 0x0c, 0x0c, 0xf4, 0x03, 0x07, 0x0a, 0x06, 0xfc, 0xf5,
  0xdb, 0xb0, 0x05, 0xff, 0x0d, 0x12, 0xeb, 0xfd, 0xe8, 0xd5, 0x20, 0x24,
  0x1e, 0x25, 0xe2, 0x1f, 0x18, 0xdd, 0xe6, 0xd9, 0xfe, 0xff, 0xed, 0x21,
  0x14, 0x01, 0x12, 0xf0, 0xdf, 0x16, 0xfc, 0x09, 0x0b, 0xfb, 0x08, 0x0c,
  0x09, 0x01, 0xf6, 0xff, 0xff, 0x0a, 0x04, 0x09, 0x03, 0xf9, 0x08, 0xfe,
  0x0a, 0x00, 0x0b, 0x05, 0x09, 0x00, 0xff, 0xfc, 0xff, 0x08, 0x09, 0xf5,
  0x0c, 0xfb, 0x06, 0x04, 0x0a, 0xfc, 0x03, 0xfd, 0x02, 0x0a, 0xfe, 0x06,
  0xfc, 0x06, 0x03, 0xfc, 0x06, 0xf6, 0x00, 0x09, 0xfc, 0x06, 0xf6, 0xf6,
  0x01, 0x0a, 0xf8, 0x09, 0x06, 0xfa, 0x04, 0xfe, 0x05, 0x0a, 0x00, 0xfd,
  0x21, 0xd5, 0x7f, 0x0d, 0xf2, 0x27, 0xea, 0xec, 0xe7, 0x2f, 0xfa, 0x02,
  0xd0, 0xee, 0x2b, 0x0c, 0x2e, 0x19, 0x26, 0x3b, 0xc5, 0x37, 0xce, 0x3f,
  0x27, 0x30, 0x0e, 0xee, 0xf1, 0x00, 0x27, 0x2d, 0xff, 0xf7, 0x00, 0x03,
  0x09, 0x07, 0xfa, 0x08, 0x07, 0xfb, 0xff, 0x04, 0xfd, 0xfa, 0x07, 0xf6,
  0xf7, 0x0a, 0xf6, 0x03, 0xfc, 0xfa, 0x00, 0x02, 0xfd, 0xfa, 0x06, 0xfe,
  0xfe, 0x01, 0x05, 0xf8, 0x09, 0x03, 0x02, 0x0a, 0xf8, 0xf6, 0xf7, 0x06,
  0x00, 0xf6, 0xfe, 0x03, 0x05, 0x02, 0x01, 0xfa, 0xf7, 0x00, 0x04, 0x04,
  0x00, 0x03, 0x00, 0xff, 0x02, 0x0a, 0x07, 0xfd, 0x08, 0xf7, 0xf7, 0x03,
  0x06, 0xe4, 0xee, 0x0b, 0x06, 0x17, 0xef, 0x11, 0x21, 0xfd, 0xfc, 0x07,
  0x15, 0x1d, 0xff, 0x05, 0xf3, 0x17, 0x0e, 0xff, 0xf6, 0x22, 0x17, 0xfb,
  0xfa, 0x05, 0xec, 0xca, 0x3b, 0x27, 0xdd, 0xff, 0x0a, 0x07, 0x02, 0xf7,
  0x05, 0x04, 0x02, 0xf6, 0xfd, 0x02, 0xf6, 0x04, 0xf8, 0xf9, 0xfa, 0x06,
  0xfe, 0x01, 0x03, 0xf6, 0xfb, 0xfb, 0x07, 0x06, 0x00, 0xf7, 0xf8, 0xf9,
  0x02, 0xf9, 0xf8, 0x03, 0xf6, 0xfe, 0x09, 0x06, 0xfe, 0xfa, 0xfc, 0xfc,
  0x08, 0xfd, 0xfb, 0xfb, 0x09, 0xfa, 0xfe, 0x04, 0xfd, 0x09, 0x02, 0xfb,
  0x0a, 0x08, 0xf9, 0x08, 0x0a, 0xfd, 0xff, 0x04, 0xfc, 0xfb, 0xfa, 0x06,
  0xeb, 0xd8, 0x05, 0xf4, 0xe0, 0xff, 0x0d, 0x13, 0xe5, 0xcf, 0x13, 0x0f,
  0x08, 0xf8, 0xf5, 0x1a, 0x24, 0xf8, 0xf9, 0x03, 0xe3, 0x0f, 0x01, 0x21,
  0xfe, 0xf5, 0xe9, 0xf8, 0xe7, 0xef, 0x03, 0x13, 0xfb, 0xfa, 0x01, 0x07,
  0xfd, 0x02, 0x04, 0xfe, 0x03, 0x05, 0x0a, 0x04, 0xf6, 0x09, 0xf8, 0xfd,
  0x01, 0xff, 0xf7, 0xf8, 0xfd, 0xfe, 0x06, 0x0a, 0xfb, 0x08, 0xfd, 0x09,
  0xfb, 0xfa, 0xff, 0x0a, 0x04, 0xf6, 0xf8, 0xf0, 0x02, 0x12, 0x02, 0x0b,
  0xf9, 0xf0, 0xf6, 0xfd, 0xf9, 0xf4, 0xf6, 0xfa, 0xf7, 0x0d, 0x0f, 0xf6,
  0x05, 0xf4, 0xf2, 0x08, 0x12, 0xf1, 0xff, 0x03, 0x01, 0x08, 0x01, 0xff,
  0xc7, 0x3a, 0xcf, 0xde, 0xfe, 0xcc, 0xe7, 0x13, 0x0a, 0xc1, 0xf6, 0x05,
  0x17, 0x4e, 0xc6, 0x22, 0xa7, 0xda, 0xe0, 0x32, 0x32, 0x11, 0x01, 0xce,
  0x29, 0xbf, 0xe2, 0x3f, 0x0f, 0x0a, 0xc9, 0xe8, 0xf9, 0x01, 0x08, 0x10,
  0x0d, 0xef, 0x02, 0xf2, 0xef, 0x12, 0xf4, 0x09, 0x0d, 0xfc, 0x0b, 0xf0,
  0x02, 0x06, 0xf5, 0xff, 0xf6, 0x10, 0x09, 0x00, 0xfc, 0x02, 0xf9, 0x0c,
  0xf2, 0xfe, 0xfd, 0x0d, 0x11, 0xf5, 0x09, 0x11, 0x02, 0xfa, 0xf1, 0x09,
  0x08, 0xf6, 0x0d, 0xf4, 0xf1, 0x10, 0xee, 0xef, 0x12, 0xf9, 0xfa, 0x07,
  0xfa, 0xf9, 0xf8, 0xf2, 0x10, 0xfd, 0x0b, 0x03, 0x08, 0x08, 0xf9, 0x0a,
  0xf9, 0x37, 0x49, 0x28, 0x95, 0xf8, 0xd2, 0xa5, 0xcb, 0x59, 0xb5, 0x81,
  0xd2, 0xac, 0x13, 0x87, 0x36, 0x19, 0x59, 0x3d, 0xb4, 0x16, 0xcd, 0xfe,
  0x00, 0xfd, 0x42, 0x35, 0x01, 0xfd, 0x35, 0x0d, 0xf6, 0x06, 0xf6, 0x02,
  0xf3, 0x02, 0xed, 0x04, 0xef, 0xf3, 0xff, 0xf3, 0xed, 0xfc, 0xef, 0x06,
  0xf8, 0x10, 0x10, 0x03, 0xf0, 0xfd, 0x0c, 0x12, 0x07, 0xf2, 0xfa, 0xff,
  0x0b, 0x02, 0x08, 0x00, 0xf0, 0x07, 0xef, 0x02, 0xf0, 0xf2, 0x00, 0x11,
  0xf7, 0xff, 0xfa, 0x01, 0x0c, 0xf6, 0x06, 0x0b, 0xee, 0x07, 0xf8, 0xf4,
  0x01, 0xff, 0xfd, 0x0f, 0x02, 0xfe, 0x0b, 0xee, 0xfb, 0xfe, 0xfc, 0xfd,
  0x0d, 0xf2, 0x09, 0xeb, 0xf8, 0x2c, 0x16, 0xce, 0x72, 0x25, 0xfc, 0xd8,
  0xe0, 0x4f, 0x04, 0x23, 0x18, 0x1a, 0x1e, 0x3b, 0x4e, 0x29, 0xca, 0xcb,
  0xbb, 0xcf, 0x25, 0x46, 0x01, 0x56, 0x1a, 0xf1, 0x0c, 0x0f, 0xf4, 0xfa,
  0x0a, 0x05, 0x02, 0x0a, 0xfe, 0xf8, 0xf0, 0x0d, 0xfd, 0xf1, 0xee, 0x0a,
  0xf5, 0xf2, 0xf3, 0x0f, 0x11, 0xfd, 0xf5, 0xf1, 0x12, 0xef, 0x07, 0x01,
  0xfb, 0xfd, 0xfd, 0xf4, 0x04, 0x03, 0x05, 0x07, 0x00, 0x0c, 0xfb, 0xfc,
  0xf9, 0x0e, 0x07, 0xf8, 0x01, 0xff, 0x07, 0xf2, 0xf2, 0xfe, 0xfc, 0x01,
  0xf7, 0x0e, 0xfc, 0x07, 0xfc, 0xf6, 0xf9, 0xff, 0xfd, 0xf7, 0x0b, 0xf8,
  0x50, 0xdb, 0x7f, 0x4b, 0xed, 0x2e, 0xe3, 0xcd, 0xe0, 0x45, 0x0d, 0xf0,
  0xa0, 0xe4, 0x59, 0xe9, 0x62, 0x0c, 0x39, 0xf4, 0xba, 0x33, 0x09, 0x2b,
  0xf9, 0x48, 0x26, 0xff, 0xf1, 0xd9, 0x2f, 0x19, 0xf4, 0xf7, 0x0c, 0x01,
  0x03, 0xfa, 0x08, 0x0e, 0x04, 0xfc, 0x0c, 0xff, 0xf9, 0xfb, 0x06, 0xfe,
  0x0b, 0xfe, 0x02, 0x07, 0xf3, 0xf8, 0x0a, 0xff, 0x01, 0xf3, 0x0d, 0xf3,
  0xff, 0x03, 0x05, 0x0d, 0x02, 0xf9, 0x06, 0x02, 0x0a, 0xfa, 0xf4, 0xf3,
  0x06, 0x05, 0x06, 0xf5, 0xfd, 0xf3, 0x0a, 0xfd, 0xf2, 0x08, 0x00, 0xf2,
  0xfb, 0xfb, 0x01, 0xf7, 0x02, 0x03, 0x0e, 0xf4, 0xff, 0xf8, 0xf5, 0xfc,
  0x0b, 0xc9, 0xec, 0xe8, 0xfd, 0x11, 0xf8, 0xfb, 0x1b, 0xed, 0x02, 0x26,
  0x00, 0x35, 0xe9, 0x14, 0xea, 0xf7, 0x04, 0x18, 0xd9, 0x1d, 0xeb, 0xf0,
  0xd9, 0xd3, 0xe7, 0xa9, 0x5f, 0x0f, 0xe0, 0xd9, 0xfb, 0x02, 0x04, 0x00,
  0x06, 0xfa, 0x0c, 0xf6, 0xff, 0xf4, 0x0b, 0xff, 0x0d, 0xf8, 0xf5, 0xf7,
  0x09, 0xf7, 0x00, 0x01, 0x06, 0xfb, 0xf2, 0x06, 0xfb, 0xf7, 0x02, 0xf4,
  0xf9, 0x07, 0xfa, 0x0a, 0x09, 0xf8, 0xf6, 0x07, 0x0b, 0x00, 0xf8, 0x0b,
  0xfe, 0x09, 0xf9, 0x07, 0x03, 0x0c, 0x0c, 0xf3, 0x00, 0x08, 0x0c, 0x0c,
  0xf4, 0x0e, 0xfc, 0x0a, 0xf4, 0x09, 0xf8, 0xf4, 0x0c, 0x06, 0x0c, 0x06,
  0xfb, 0xda, 0xe1, 0xfb, 0xe7, 0x06, 0xf7, 0x1a, 0xbc, 0xee, 0x17, 0x0b,
  0x1b, 0xe5, 0xfc, 0x1c, 0x3f, 0xf7, 0xff, 0xf3, 0xe0, 0x20, 0x00, 0x0e,
  0xf0, 0x0c, 0xc6, 0xfa, 0xca, 0x04, 0x14, 0x05, 0x08, 0x0a, 0x03, 0xf3,
  0x0d, 0x09, 0xff, 0xf3, 0x0d, 0xf2, 0x03, 0x08, 0x0b, 0xf9, 0x04, 0x07,
  0xf7, 0x07, 0xfe, 0xf3, 0x0d, 0xfe, 0xf2, 0x0e, 0x07, 0x06, 0xf3, 0xfa,
  0x04, 0xf2, 0x0d, 0x08, 0x09, 0x05, 0x0c, 0xfe, 0xf8, 0x05, 0x04, 0xfe,
  0x06, 0xfb, 0x0f, 0xf8, 0x00, 0xf1, 0xf9, 0xf7, 0xfe, 0x0c, 0xf7, 0xf9,
  0xf3, 0x00, 0xfd, 0x0d, 0x00, 0xf6, 0x0a, 0xfe, 0xfc, 0x07, 0xf4, 0x0c,
  0x0b, 0xc3, 0x3a, 0x20, 0xf9, 0xe8, 0xa6, 0xca, 0xd0, 0x12, 0x14, 0x15,
  0x12, 0x35, 0xf5, 0x08, 0xd7, 0xd9, 0x07, 0x0e, 0xe9, 0xf4, 0xa4, 0xe8,
  0x42, 0x18, 0x35, 0xfc, 0xe6, 0x02, 0x1f, 0x2d, 0xf6, 0xfc, 0x00, 0x00,
  0xf9, 0xfd, 0xff, 0xf3, 0xfc, 0x0b, 0x03, 0x04, 0x0c, 0x0d, 0xf6, 0x00,
  0xfb, 0xf8, 0x03, 0x0c, 0x01, 0xf6, 0xfc, 0xfa, 0x0e, 0x06, 0xff, 0x0f,
  0xfc, 0xf5, 0xf9, 0x0b, 0x0c, 0xff, 0xfc, 0x03, 0x0f, 0x07, 0xf1, 0xf8,
  0xf5, 0xff, 0x09, 0x06, 0xfb, 0x0e, 0x09, 0x02, 0x0d, 0x0e, 0x07, 0xf7,
  0xfc, 0x05, 0x0f, 0xf5, 0x0d, 0xfa, 0x09, 0xfc, 0xf4, 0xf5, 0xfc, 0x06,
  0x67, 0xfc, 0x1f, 0x2f, 0xdc, 0x61, 0xb1, 0xc5, 0x4e, 0x35, 0x04, 0xbb,
  0xf7, 0xe0, 0x4a, 0xc7, 0x26, 0x1e, 0x41, 0x39, 0xdb, 0x7f, 0xf7, 0x26,
  0x13, 0xcd, 0x07, 0xc1, 0x53, 0x1f, 0x4e, 0xfa, 0x0b, 0xf3, 0x04, 0x0d,
  0x07, 0x0b, 0x08, 0x03, 0x0a, 0x0d, 0x00, 0xfe, 0x09, 0x05, 0xfd, 0x00,
  0x0b, 0x0e, 0xfb, 0x01, 0x0a, 0x0f, 0x06, 0x0b, 0xf7, 0xfe, 0x05, 0xfe,
  0xf4, 0xf3, 0xf2, 0xf6, 0xf4, 0x00, 0x0c, 0x0f, 0x0e, 0xf9, 0x0a, 0x04,
  0x0d, 0xfd, 0x0c, 0x04, 0xfc, 0x03, 0xff, 0xf2, 0xf7, 0x07, 0xfc, 0x0f,
  0xf3, 0xf6, 0xfc, 0xf8, 0x01, 0xf9, 0x0e, 0x0d, 0xfc, 0xf2, 0x05, 0x0a,
  0xd9, 0xe4, 0xdf, 0xf9, 0x3a, 0x0c, 0xde, 0x14, 0x33, 0xc2, 0xf4, 0x10,
  0x0c, 0x0c, 0xeb, 0x05, 0xf5, 0xeb, 0xc9, 0x06, 0x10, 0x37, 0xf0, 0x21,
  0x0e, 0xf4, 0xd8, 0x06, 0xfb, 0x48, 0xe6, 0xde, 0xf6, 0x09, 0xf3, 0x09,
  0x0d, 0x0d, 0x0d, 0x08, 0xfe, 0x00, 0xff, 0x09, 0x05, 0xf4, 0xf2, 0xf8,
  0xfb, 0x05, 0xfe, 0xf4, 0x05, 0xfb, 0x0c, 0xfb, 0xf3, 0x0f, 0xfc, 0xfa,
  0x01, 0xf1, 0xfb, 0x02, 0x0c, 0x0c, 0xf6, 0xf4, 0xfc, 0x0b, 0xf1, 0xfe,
  0x0b, 0x04, 0x08, 0xfc, 0xf5, 0x07, 0x07, 0xfb, 0x05, 0x05, 0xfb, 0xf3,
  0x05, 0x05, 0x03, 0xf6, 0x07, 0x0f, 0x0a, 0x0b, 0xfe, 0x0c, 0x05, 0xf8,
  0xf4, 0xd6, 0xf1, 0x14, 0xd0, 0xf8, 0x9e, 0xc0, 0xe3, 0x10, 0x06, 0x08,
  0xf5, 0x33, 0xfa, 0xe7, 0xdc, 0xb8, 0xfc, 0x17, 0xe0, 0xe5, 0xbc, 0xcc,
  0x35, 0x19, 0x17, 0x07, 0x07, 0xfb, 0x19, 0xf2, 0xf2, 0xfc, 0x05, 0x0d,
  0xf9, 0xf2, 0xf8, 0x09, 0xf1, 0xf9, 0x0a, 0x07, 0xf6, 0x00, 0xf7, 0x07,
  0xf6, 0x02, 0xfc, 0xf4, 0xf9, 0x0f, 0x0f, 0x03, 0xf1, 0xf2, 0x07, 0xf6,
  0x02, 0x02, 0xfe, 0xf7, 0x04, 0x0f, 0x0d, 0x08, 0x0b, 0x0f, 0xf8, 0x0d,
  0x0a, 0x0c, 0x05, 0xf3, 0x0c, 0x0d, 0x07, 0x0f, 0x07, 0xf1, 0x05, 0xf4,
  0xfc, 0xff, 0x0a, 0x01, 0x04, 0x07, 0x08, 0xf2, 0xfa, 0x08, 0xf4, 0xf6,
  0x3c, 0x43, 0x38, 0x41, 0xad, 0x29, 0xda, 0x81, 0x3b, 0x46, 0xd7, 0xb4,
  0xf0, 0xe9, 0x59, 0xa4, 0x1c, 0x30, 0x54, 0x55, 0x08, 0x37, 0x00, 0xf7,
  0x20, 0xd4, 0x2d, 0xe5, 0x70, 0x0a, 0x3e, 0xf8, 0x04, 0xfe, 0x0b, 0xfd,
  0x08, 0xf1, 0x0c, 0xfb, 0x00, 0x09, 0xf8, 0xf5, 0xf7, 0xf4, 0x07, 0x00,
  0xfe, 0x09, 0xff, 0xfb, 0xf0, 0xff, 0x00, 0x07, 0xf9, 0x0c, 0x04, 0xf2,
  0xfa, 0x07, 0x0e, 0x08, 0xfa, 0x06, 0x0e, 0xff, 0xfc, 0xfd, 0x0c, 0xfe,
  0x00, 0x06, 0x05, 0x04, 0x06, 0x0c, 0xfb, 0xf2, 0x01, 0x00, 0x07, 0xf5,
  0x10, 0x06, 0x0d, 0x02, 0xfc, 0x0b, 0x03, 0xf7, 0xf3, 0x0e, 0x00, 0x00,
  0xea, 0xc2, 0x01, 0xe5, 0xfa, 0x1b, 0xee, 0xd7, 0x30, 0xfa, 0x26, 0x29,
  0xe5, 0x12, 0xc3, 0x13, 0x1c, 0xf0, 0x07, 0x24, 0xfd, 0x17, 0xe2, 0xfd,
  0xf5, 0xc3, 0x12, 0x34, 0xfb, 0x36, 0xdb, 0x18, 0xf3, 0xfa, 0x0b, 0xff,
  0x04, 0xf4, 0x05, 0x01, 0xf8, 0xf9, 0xff, 0xf5, 0x09, 0x06, 0xf3, 0x0c,
  0xf8, 0xf4, 0xfb, 0xf1, 0x03, 0xfc, 0xfa, 0xfe, 0xf3, 0xf8, 0x0b, 0x0e,
  0xf1, 0x05, 0x09, 0xfe, 0x09, 0x02, 0x05, 0xfd, 0x03, 0xfc, 0x0f, 0x00,
  0x0d, 0x06, 0xf1, 0xf8, 0xf1, 0x06, 0x0d, 0xf1, 0x0c, 0x07, 0xfd, 0x0b,
  0xfd, 0x0b, 0xfd, 0x0b, 0x00, 0x05, 0x08, 0x0e, 0x09, 0xff, 0x07, 0xf6,
  0xcd, 0x1d, 0xb1, 0xd0, 0xca, 0xb5, 0x0a, 0xdb, 0x19, 0x0b, 0xd3, 0xe6,
  0x18, 0x24, 0xc1, 0x1a, 0xee, 0xb6, 0xec, 0xed, 0x28, 0xff, 0x41, 0xcc,
  0xf3, 0xa8, 0xc8, 0x3d, 0x00, 0xe3, 0xf6, 0x81, 0xf7, 0xf9, 0x0d, 0xf4,
  0x04, 0x0f, 0x09, 0x0d, 0x0e, 0x04, 0xf2, 0xf9, 0x03, 0x0f, 0xfe, 0xfe,
  0xfd, 0x0f, 0x09, 0x0e, 0xf9, 0x0e, 0xf4, 0x03, 0x0e, 0x00, 0xf5, 0x04,
  0xff, 0x0a, 0xfb, 0x01, 0x0c, 0x07, 0xfc, 0xfa, 0xff, 0x08, 0x0d, 0x03,
  0x0f, 0xfe, 0xf4, 0x03, 0xf8, 0x0e, 0x02, 0xff, 0xf6, 0xf2, 0x08, 0xf5,
  0x08, 0x04, 0x08, 0xf1, 0x07, 0x0a, 0x0a, 0x07, 0x05, 0xfb, 0x0f, 0xff,
  0x11, 0x6e, 0x22, 0xfe, 0x8e, 0xc4, 0x05, 0xab, 0x11, 0xed, 0xe3, 0xc8,
  0xdf, 0xe1, 0x1b, 0xf3, 0xee, 0x06, 0x03, 0x3b, 0x3f, 0xf2, 0xf0, 0xd9,
  0x55, 0xd3, 0x21, 0x33, 0x2b, 0xb0, 0x38, 0xbd, 0xff, 0x0c, 0xf4, 0xf3,
  0x01, 0x07, 0xff, 0xfc, 0x0c, 0xfe, 0xfb, 0x00, 0x0e, 0xf4, 0xf7, 0x02,
  0xf3, 0xf1, 0x06, 0x06, 0x03, 0x08, 0xf3, 0x05, 0xf5, 0x08, 0x01, 0x05,
  0xf9, 0xf9, 0xf2, 0xfb, 0x00, 0xf9, 0xf4, 0xf6, 0xfc, 0x0b, 0xf2, 0x06,
  0xfa, 0xf6, 0x09, 0x09, 0x0f, 0xf2, 0xff, 0xf4, 0xf4, 0x08, 0x08, 0xf3,
  0x0f, 0x03, 0x08, 0x00, 0x08, 0x02, 0xf7, 0xf2, 0x09, 0x0f, 0xf2, 0xf6,
  0xf3, 0x3a, 0x15, 0xda, 0xbe, 0x00, 0x0a, 0xf3, 0x11, 0x22, 0xdf, 0xe5,
  0xc6, 0x1a, 0xf7, 0x16, 0xf0, 0x01, 0x30, 0x10, 0x13, 0xed, 0x26, 0xf8,
  0x01, 0xf3, 0x30, 0x28, 0x0a, 0x11, 0x02, 0x23, 0x06, 0x0c, 0x03, 0xf8,
  0xf8, 0xf8, 0xf8, 0x03, 0x0b, 0x0a, 0x08, 0x0d, 0xf7, 0x05, 0xfe, 0xf4,
  0x0f, 0x07, 0x08, 0x02, 0x0c, 0xfa, 0xf6, 0xff, 0xfb, 0x08, 0x04, 0xfd,
  0xf8, 0x01, 0x0e, 0xff, 0xf3, 0xf9, 0xf8, 0x04, 0xfa, 0x0c, 0xfb, 0x02,
  0xfb, 0x0a, 0x09, 0x09, 0xff, 0x01, 0xfb, 0xf8, 0xf6, 0xfc, 0x01, 0xf3,
  0xf4, 0xfb, 0xff, 0xfb, 0x0c, 0x0d, 0x09, 0x06, 0x0c, 0x09, 0x0b, 0x01,
  0x27, 0xfd, 0xe7, 0x1d, 0x29, 0xf3, 0xc3, 0x3e, 0xff, 0xcf, 0x22, 0x01,
  0x16, 0x3c, 0x01, 0xd0, 0xf2, 0x06, 0xca, 0xd3, 0x25, 0xdf, 0xd9, 0x0e,
  0xdc, 0xf0, 0x2a, 0x1a, 0x2a, 0x41, 0xe2, 0xeb, 0x0d, 0xf3, 0x01, 0xfa,
  0x02, 0x04, 0x01, 0xfa, 0x04, 0x05, 0x08, 0x08, 0xf3, 0xfd, 0xfb, 0xf3,
  0xfe, 0xf3, 0xfe, 0x0c, 0x05, 0x0b, 0x06, 0xfc, 0xfd, 0xfb, 0xf3, 0x0a,
  0xfc, 0x09, 0xf6, 0x04, 0xf7, 0x03, 0xfc, 0x0c, 0x00, 0x06, 0xfa, 0xfa,
  0x07, 0xf3, 0xf5, 0x09, 0x0d, 0xfa, 0xfb, 0x0c, 0xfc, 0x05, 0x03, 0x01,
  0xfe, 0x02, 0xf3, 0x06, 0xf3, 0x00, 0xff, 0x0b, 0xfe, 0xfa, 0x05, 0x04,
  0x06, 0xe6, 0x07, 0x1c, 0x4e, 0x06, 0x07, 0x52, 0x25, 0x17, 0x1e, 0x00,
  0x2b, 0x08, 0xfc, 0xe9, 0x12, 0x22, 0x09, 0xf0, 0x0b, 0x03, 0xf8, 0xf8,
  0xff, 0x11, 0x15, 0x27, 0x0a, 0x4d, 0x00, 0x11, 0xfb, 0x08, 0x01, 0xff,
  0x07, 0x0d, 0xff, 0x03, 0xfe, 0xf9, 0xff, 0xf5, 0x05, 0xf7, 0xf3, 0x06,
  0xfd, 0xf3, 0xfd, 0x03, 0xf7, 0x08, 0xfd, 0x0c, 0xff, 0xf3, 0x08, 0xf5,
  0x06, 0xfc, 0x00, 0x0a, 0x08, 0x01, 0xf7, 0x03, 0xfe, 0x03, 0x09, 0x0b,
  0x06, 0xf3, 0xf6, 0x0c, 0xfc, 0xfc, 0xf8, 0xf8, 0x08, 0x0b, 0xf4, 0xfa,
  0xf2, 0xfb, 0xfe, 0xf3, 0x03, 0x03, 0x09, 0x06, 0x07, 0x05, 0x0b, 0xf6,
  0xf6, 0x09, 0xe9, 0xfe, 0x24, 0xdc, 0x2d, 0xb9, 0xd2, 0xce, 0xf2, 0x2f,
  0x49, 0x34, 0x15, 0x37, 0xe5, 0x0a, 0xe7, 0xf3, 0x03, 0x0f, 0x09, 0x06,
  0xf6, 0x11, 0xd2, 0xaf, 0xe7, 0x81, 0xe9, 0xea, 0x00, 0xf3, 0xfa, 0xf3,
  0x06, 0xfd, 0x08, 0x07, 0xf3, 0xfe, 0x06, 0xf5, 0xfd, 0xf9, 0x04, 0x02,
  0x06, 0x05, 0x05, 0x0a, 0xf8, 0xfa, 0xf3, 0xf9, 0x09, 0xf4, 0xfc, 0x0c,
  0xf8, 0x0b, 0x05, 0xf5, 0x0b, 0xf6, 0x09, 0xf7, 0x09, 0x01, 0xfd, 0xf9,
  0x01, 0xff, 0x08, 0x08, 0x07, 0x09, 0xf9, 0xf9, 0x0b, 0xfa, 0xf7, 0xf8,
  0xfb, 0xfd, 0xf9, 0xfd, 0x08, 0xfb, 0xfb, 0x03, 0xfb, 0xf5, 0x02, 0x08,
  0xf4, 0xc4, 0xfe, 0xea, 0x03, 0xf5, 0xb6, 0xdb, 0xc6, 0xd2, 0x13, 0x16,
  0xf9, 0xf9, 0xf1, 0x04, 0xe5, 0xe5, 0xcf, 0x0f, 0xd6, 0xef, 0xe5, 0xf8,
  0xf3, 0xdc, 0xec, 0xc8, 0xe0, 0xd8, 0xd7, 0x1c, 0xf8, 0x00, 0xfb, 0xf7,
  0x02, 0x06, 0xf5, 0xf9, 0xf8, 0xff, 0xfa, 0x0a, 0xf5, 0x04, 0xf8, 0xf9,
  0x0a, 0x07, 0xfe, 0x03, 0xf7, 0x07, 0x07, 0x01, 0xf5, 0x06, 0xf9, 0xfa,
  0xf9, 0x04, 0x00, 0x09, 0xfa, 0xfb, 0x0a, 0xfa, 0x03, 0xfb, 0x08, 0x05,
  0x05, 0x07, 0x0a, 0x06, 0x03, 0x05, 0xfd, 0xf9, 0x03, 0x04, 0x00, 0x01,
  0x08, 0x02, 0xfe, 0x00, 0xf7, 0xfb, 0xf8, 0xfe, 0xfc, 0xfa, 0xfa, 0xfe,
  0x10, 0x81, 0x01, 0xff, 0x24, 0xdf, 0xd8, 0x17, 0x08, 0xfa, 0x0e, 0x61,
  0xe2, 0xd9, 0x08, 0x11, 0x04, 0x00, 0xf6, 0xfa, 0x98, 0x03, 0xec, 0x0a,
  0xf5, 0xfd, 0x0e, 0x11, 0x02, 0x28, 0xcf, 0x12, 0xf5, 0xf6, 0x07, 0xfc,
  0x0b, 0xfb, 0x07, 0xfa, 0xf6, 0xf9, 0xf6, 0x04, 0xf8, 0xfe, 0xff, 0xf8,
  0xf8, 0xfb, 0x09, 0xff, 0x00, 0xf6, 0x07, 0xf9, 0xfb, 0x09, 0xf6, 0xf7,
  0xf5, 0x07, 0xff, 0x0b, 0xf6, 0xff, 0x05, 0xfa, 0xf5, 0x0a, 0xfd, 0x05,
  0x0b, 0x08, 0xf9, 0x02, 0x02, 0xfd, 0x06, 0xfc, 0x07, 0x08, 0xfb, 0xfb,
  0x08, 0x01, 0x02, 0x0a, 0xfd, 0xf9, 0x00, 0x09, 0x0a, 0xfc, 0x02, 0xfe,
  0x19, 0x06, 0xee, 0x0b, 0x2d, 0xf7, 0xf1, 0x08, 0x06, 0xd5, 0xfb, 0x10,
  0x46, 0x0d, 0xfb, 0xf8, 0xfc, 0x00, 0xd4, 0xfc, 0xfa, 0xfb, 0x0e, 0xfe,
  0x06, 0xee, 0xe9, 0xe0, 0x02, 0x1b, 0xd9, 0xda, 0xf7, 0xfd, 0x0b, 0x03,
  0xf5, 0x07, 0xfe, 0xff, 0xfb, 0x02, 0x09, 0xfd, 0x08, 0xfd, 0xfc, 0xf6,
  0x08, 0x07, 0x0b, 0x04, 0xfa, 0x08, 0x05, 0x02, 0xfd, 0x06, 0xfe, 0x04,
  0x0a, 0xfc, 0xf8, 0x05, 0x0b, 0xf7, 0x0a, 0xf0, 0x06, 0xfe, 0x09, 0xfe,
  0x0c, 0x0e, 0x09, 0xf3, 0x0c, 0xf5, 0xf2, 0x0c, 0xf8, 0x10, 0x04, 0x0a,
  0xff, 0x03, 0x0a, 0x05, 0xf3, 0xf8, 0x0a, 0x0b, 0x0c, 0x03, 0xfa, 0x0b,
  0xf7, 0x81, 0xce, 0x39, 0x7f, 0x1a, 0xf8, 0x91, 0xf7, 0xe3, 0x17, 0x05,
  0x28, 0x47, 0x19, 0x3e, 0xe1, 0xe7, 0xd9, 0x20, 0x12, 0xcf, 0xe5, 0xd4,
  0xff, 0x4e, 0x6d, 0xc6, 0xf5, 0xf3, 0x0f, 0x2b, 0x0f, 0xf5, 0xfd, 0x06,
  0x09, 0x0a, 0xfb, 0xf1, 0xf7, 0x0f, 0xff, 0x04, 0x0e, 0xf2, 0xfc, 0xfa,
  0x07, 0xfa, 0xf7, 0x07, 0xf7, 0x02, 0xf1, 0xfe, 0x0d, 0x01, 0x0e, 0xf8,
  0x0f, 0x0e, 0x0b, 0x0d, 0x02, 0x0b, 0xf1, 0xfa, 0xf0, 0x05, 0x0c, 0xfd,
  0xf2, 0xf8, 0x07, 0xf3, 0x07, 0x02, 0x06, 0xf5, 0xf9, 0xf3, 0x07, 0x07,
  0x09, 0xfd, 0x01, 0xf2, 0xf2, 0xfe, 0xfd, 0x0b, 0x05, 0x05, 0x08, 0xfb,
  0xe2, 0xd4, 0x16, 0x04, 0x86, 0xbb, 0xec, 0xce, 0xe0, 0x37, 0x13, 0xeb,
  0xb1, 0xf8, 0x15, 0xde, 0x47, 0x16, 0x15, 0xfe, 0x03, 0xf7, 0x11, 0x2f,
  0x34, 0x0d, 0x5e, 0x44, 0xd7, 0xe4, 0x31, 0x14, 0x09, 0x09, 0xf1, 0xfa,
  0x04, 0x0b, 0x09, 0x04, 0xf2, 0xf7, 0xfe, 0x02, 0x08, 0xfb, 0xfd, 0x0f,
  0x07, 0x00, 0xfd, 0x0b, 0xfc, 0xf6, 0xff, 0x06, 0x00, 0x09, 0xfd, 0x0b,
  0x0d, 0x03, 0xf0, 0x0c, 0xfd, 0x05, 0x0a, 0xf5, 0xf1, 0xf1, 0xf5, 0x0a,
  0x03, 0x0a, 0x0e, 0xf0, 0x00, 0xf4, 0xfe, 0x0b, 0x0e, 0xf5, 0xf7, 0x08,
  0xf8, 0xfe, 0xff, 0xf9, 0xf1, 0xfa, 0x0c, 0xf8, 0xfb, 0x0e, 0xfe, 0x0f,
  0x1d, 0xcd, 0xf0, 0x34, 0x46, 0xd6, 0xce, 0x29, 0x16, 0x09, 0xf7, 0x23,
  0x42, 0x0e, 0x19, 0x11, 0x08, 0x10, 0xee, 0x03, 0x24, 0xf4, 0xf4, 0x0f,
  0xcb, 0xf0, 0xed, 0xfe, 0x0e, 0x1c, 0xe4, 0xe8, 0x0a, 0xf7, 0xf1, 0x0d,
  0xff, 0x0f, 0xf8, 0xfb, 0x0e, 0xfe, 0x06, 0xff, 0x04, 0xfe, 0xfc, 0xf8,
  0xf4, 0x08, 0xf8, 0x0f, 0x10, 0xfc, 0x0e, 0xfd, 0xfa, 0xf9, 0x03, 0xf6,
  0x02, 0xfe, 0xff, 0xf9, 0xfe, 0x03, 0x0e, 0x01, 0x03, 0xfb, 0x03, 0x05,
  0x02, 0x01, 0x0b, 0x05, 0x0b, 0x05, 0x03, 0x0a, 0xff, 0xfd, 0xff, 0x08,
  0xff, 0xf2, 0x04, 0x08, 0xf2, 0xfe, 0xf7, 0x08, 0x0f, 0x0f, 0x0a, 0x0e,
  0xfb, 0xec, 0x61, 0xe2, 0xce, 0xbc, 0x28, 0xd8, 0x02, 0x5f, 0x0b, 0x1c,
  0xe0, 0x81, 0x29, 0x22, 0x0a, 0x6b, 0x1e, 0x7b, 0xcc, 0x2c, 0xda, 0x1f,
  0xf1, 0x13, 0x03, 0x2a, 0xde, 0xee, 0x16, 0x2d, 0xf2, 0xf9, 0x04, 0xf5,
  0x04, 0x00, 0xf3, 0x0e, 0xf2, 0xf5, 0x0a, 0xf5, 0xf3, 0x06, 0x0b, 0xf9,
  0x07, 0xff, 0xfd, 0xf1, 0xf3, 0x01, 0x05, 0x02, 0xf9, 0x0c, 0x08, 0x04,
  0x0f, 0xfa, 0x0b, 0x10, 0x0b, 0x0e, 0xf8, 0x00, 0x0b, 0x0c, 0xf2, 0x0f,
  0xfd, 0x00, 0x00, 0xfb, 0xf6, 0xf8, 0x02, 0x07, 0xf8, 0xfd, 0x0a, 0x05,
  0x03, 0x0f, 0xf2, 0x04, 0x0f, 0xf1, 0x01, 0xf5, 0xf6, 0x03, 0xf2, 0x03,
  0xee, 0xfe, 0xd2, 0xe2, 0x15, 0x15, 0xc0, 0xfc, 0x2e, 0xea, 0x0f, 0x22,
  0xee, 0x37, 0xec, 0x0c, 0xe3, 0x11, 0x06, 0x39, 0xe9, 0x54, 0x48, 0x08,
  0xf2, 0xe4, 0xf2, 0xfa, 0x18, 0x15, 0xe4, 0xe7, 0x01, 0xf5, 0x09, 0xfc,
  0x07, 0x0c, 0x01, 0xfb, 0xfb, 0xfb, 0x00, 0xf6, 0xf0, 0xf4, 0xf9, 0xf4,
  0x0b, 0xfe, 0x01, 0xf1, 0xfc, 0xf8, 0xfa, 0x0d, 0x06, 0x0c, 0x0a, 0x00,
  0x05, 0xf8, 0x03, 0xf6, 0x0d, 0xfc, 0x03, 0x09, 0xf2, 0xfb, 0x01, 0x01,
  0xfc, 0xf5, 0xfb, 0xf1, 0x0a, 0x09, 0x07, 0x0c, 0x06, 0x08, 0xfe, 0xfa,
  0xf3, 0xff, 0x00, 0xf6, 0x0a, 0xf4, 0xfd, 0xf4, 0xf5, 0xfd, 0x0f, 0xf8,
  0xd2, 0xe4, 0x00, 0xe4, 0x08, 0x09, 0x3e, 0x23, 0xfd, 0xb2, 0x1d, 0x41,
  0x06, 0x0f, 0xcb, 0x1d, 0x27, 0xf1, 0xfd, 0xf3, 0xf5, 0x33, 0x13, 0x07,
  0xc4, 0xd5, 0xe3, 0x09, 0xe1, 0x14, 0xe5, 0xe7, 0x08, 0x08, 0xfd, 0xf9,
  0x06, 0xf5, 0xff, 0xf8, 0x04, 0x0d, 0x00, 0x09, 0x0d, 0xf6, 0xfd, 0x03,
  0x05, 0xf6, 0x0f, 0x03, 0xf5, 0xf2, 0xfc, 0xfc, 0x0d, 0x07, 0xfc, 0xf1,
  0x05, 0xff, 0x0b, 0xf0, 0x08, 0x04, 0xfa, 0x0e, 0x03, 0xf3, 0x02, 0xef,
  0x03, 0x08, 0x04, 0x01, 0xf1, 0xfd, 0xfe, 0xfd, 0x06, 0x11, 0x0a, 0x0e,
  0xfe, 0xfd, 0xf4, 0xfb, 0xf6, 0xff, 0x00, 0xfc, 0xfa, 0xf4, 0x08, 0xf1,
  0x3c, 0xca, 0xbf, 0x31, 0x2a, 0xfa, 0xaa, 0x1a, 0xf7, 0xf3, 0xf4, 0xbc,
  0x44, 0x4c, 0x22, 0x98, 0x06, 0xe1, 0xd8, 0xed, 0x31, 0xd0, 0xb0, 0xb2,
  0x8a, 0xff, 0x16, 0xde, 0x0a, 0x50, 0x19, 0x0f, 0x05, 0x08, 0x04, 0xf7,
  0xf8, 0x11, 0x05, 0xf2, 0x02, 0xfe, 0x08, 0xfb, 0x07, 0xf4, 0x0c, 0x10,
  0x0b, 0xf5, 0xf2, 0xfb, 0xf8, 0x01, 0x03, 0xff, 0xf1, 0x01, 0x11, 0xfe,
  0xfe, 0xef, 0x00, 0x0f, 0x0b, 0x0d, 0xfe, 0x0d, 0x0c, 0x0c, 0xfd, 0xfa,
  0x0c, 0xf7, 0x0a, 0xfb, 0x04, 0xf3, 0x02, 0x06, 0xff, 0x10, 0x09, 0x10,
  0x0d, 0x02, 0xef, 0xf6, 0xf2, 0x00, 0x0b, 0xf6, 0xfe, 0xf0, 0x04, 0x00,
  0x2d, 0xde, 0x05, 0xfe, 0x3b, 0x08, 0xf9, 0x12, 0x1f, 0x00, 0x2f, 0xfc,
  0x27, 0xf1, 0x20, 0xff, 0x1a, 0x11, 0xfb, 0xcb, 0xf3, 0x14, 0xbe, 0xe6,
  0xd7, 0xd9, 0xfa, 0x08, 0x0f, 0x28, 0x25, 0x10, 0xf5, 0x0d, 0xfa, 0xf2,
  0x03, 0xfa, 0x02, 0x00, 0x10, 0x03, 0xfb, 0xf5, 0xf4, 0xfb, 0xf4, 0xfd,
  0xfb, 0x10, 0x0d, 0xfd, 0x0c, 0x04, 0x0c, 0x0d, 0xfa, 0xff, 0x0c, 0xfb,
  0xf2, 0xfc, 0xf0, 0x01, 0x0a, 0xf1, 0x08, 0x02, 0xf1, 0xfc, 0x0b, 0x0a,
  0xf8, 0xfa, 0x0b, 0xf5, 0x10, 0x0b, 0xf5, 0xf0, 0x0c, 0x0f, 0xff, 0x04,
  0xf7, 0x07, 0x0f, 0x02, 0xfe, 0xf7, 0x06, 0xfe, 0xf9, 0x0d, 0xfa, 0xfc,
  0xf8, 0x2f, 0xfe, 0x02, 0x0a, 0xe9, 0x37, 0xb9, 0xee, 0xe3, 0x1b, 0x63,
  0x50, 0x4e, 0x11, 0x7f, 0xe2, 0xfc, 0xeb, 0x06, 0x08, 0xe4, 0x1e, 0x14,
  0x17, 0xe1, 0xfe, 0xf7, 0xfb, 0xa3, 0xfa, 0xf2, 0xf2, 0x07, 0x0e, 0xf0,
  0xf1, 0xef, 0xf2, 0xfa, 0x00, 0x0e, 0xf1, 0xfe, 0xf6, 0x03, 0x0c, 0xfb,
  0x10, 0x0f, 0xf0, 0xf5, 0x05, 0xf6, 0xfd, 0x02, 0x00, 0xfa, 0x08, 0x10,
  0xf3, 0xf1, 0x04, 0x0d, 0xfa, 0xfc, 0xf9, 0x07, 0x01, 0x02, 0xfd, 0x09,
  0x09, 0x05, 0xfe, 0x03, 0xfb, 0x01, 0xf7, 0x01, 0x03, 0xff, 0xff, 0x08,
  0xf8, 0x01, 0x06, 0xfa, 0xfb, 0x03, 0xf6, 0x06, 0xf7, 0x05, 0xfd, 0x07,
  0x03, 0xce, 0x15, 0xf5, 0xf7, 0xf8, 0xe2, 0xfd, 0xc2, 0xfc, 0x12, 0x23,
  0x04, 0xfd, 0x0f, 0x28, 0x02, 0xf1, 0x06, 0x20, 0xe3, 0xeb, 0x02, 0x0b,
  0x07, 0x04, 0xea, 0xc5, 0xdc, 0xe5, 0xfa, 0x31, 0xfc, 0xf9, 0xf9, 0x09,
  0x00, 0x00, 0x04, 0x01, 0xfc, 0xf9, 0x04, 0x05, 0xf7, 0x07, 0xfd, 0x02,
  0xfd, 0xfb, 0x07, 0xfd, 0x0a, 0xf7, 0xf9, 0x09, 0x06, 0xfe, 0xff, 0x08,
  0xf8, 0xff, 0x08, 0x00, 0x06, 0xfd, 0x05, 0x05, 0x07, 0x01, 0x0a, 0x04,
  0xfd, 0xff, 0x04, 0x02, 0xfd, 0x05, 0xfb, 0x00, 0x06, 0xfc, 0xf9, 0xf9,
  0x01, 0xfb, 0xf7, 0xf9, 0x0a, 0x09, 0xf8, 0x08, 0xfc, 0x08, 0x06, 0xff,
  0x0c, 0x81, 0xe8, 0x0b, 0x26, 0x06, 0xed, 0xf7, 0x10, 0x00, 0x1a, 0x52,
  0x00, 0xdb, 0xf8, 0x20, 0x13, 0x1a, 0xe6, 0x15, 0x9a, 0x1a, 0xce, 0x0f,
  0xd5, 0xe6, 0xeb, 0xe4, 0x0a, 0x14, 0xc2, 0x1e, 0xf7, 0xfe, 0x05, 0x05,
  0xf7, 0xff, 0x00, 0xfd, 0x01, 0xfe, 0xf7, 0x02, 0x02, 0x04, 0x09, 0x0a,
  0xfe, 0x01, 0x03, 0xfe, 0xfe, 0x04, 0x00, 0xf8, 0xf6, 0xfa, 0x04, 0x08,
  0xf7, 0xf7, 0xfd, 0xfe, 0x02, 0xf8, 0x03, 0x01, 0x01, 0x08, 0x07, 0xf6,
  0x08, 0x00, 0xfc, 0xfc, 0xf7, 0x01, 0xf8, 0x04, 0xf8, 0x00, 0x03, 0x08,
  0x03, 0x04, 0x07, 0x09, 0x07, 0x07, 0x04, 0x04, 0x09, 0xff, 0x06, 0xfd,
  0x0b, 0xbf, 0xee, 0xf2, 0x00, 0xf0, 0xf9, 0xe5, 0xeb, 0xe5, 0xf5, 0x08,
  0xfd, 0xeb, 0x10, 0xf5, 0x08, 0xef, 0xe9, 0xf0, 0xdd, 0x0a, 0xfd, 0xf1,
  0xe1, 0xd5, 0xd9, 0xce, 0xde, 0x0b, 0xd7, 0xfe, 0xfd, 0x09, 0xf8, 0xff,
  0xf9, 0xfc, 0xfb, 0xf7, 0xfc, 0x00, 0x09, 0x06, 0xf6, 0xfc, 0x00, 0x00,
  0x04, 0xf7, 0x09, 0xf8, 0x07, 0xf8, 0x08, 0xfe, 0x04, 0xf7, 0x04, 0xfc,
  0xfa, 0xfe, 0xf6, 0x04, 0x0c, 0xed, 0xf8, 0xfb, 0xf4, 0xf4, 0xfc, 0x08,
  0xff, 0x01, 0xf8, 0x0a, 0x0c, 0x05, 0xfe, 0x0a, 0xfd, 0x09, 0xed, 0x12,
  0xf4, 0x0e, 0x0e, 0xed, 0xfe, 0xef, 0xf7, 0xf4, 0xed, 0xfc, 0xf0, 0x04,
  0x0d, 0xc0, 0xd1, 0x37, 0x37, 0xeb, 0xa5, 0x2d, 0x04, 0xe0, 0xeb, 0x06,
  0x3a, 0x58, 0x01, 0x81, 0xe8, 0xd6, 0xbf, 0xc8, 0x3c, 0xbd, 0xd1, 0xd1,
  0x82, 0xd0, 0x2d, 0xde, 0x17, 0x25, 0xcc, 0xd1, 0xfb, 0xef, 0x10, 0xf9,
  0x04, 0x02, 0x03, 0x01, 0xfa, 0x0f, 0x05, 0xf2, 0xf2, 0x07, 0xed, 0x0e,
  0x08, 0xf7, 0x09, 0x02, 0x0d, 0xfa, 0x10, 0xed, 0x01, 0x0c, 0xf3, 0x0e,
  0xfa, 0xfb, 0x0a, 0xfd, 0xed, 0xf3, 0xf3, 0xfa, 0x0c, 0xf4, 0x08, 0x00,
  0x0a, 0x02, 0x12, 0x02, 0xff, 0xf2, 0x04, 0x05, 0x0d, 0xee, 0x10, 0xee,
  0xfb, 0xf1, 0x01, 0x06, 0xfd, 0xfb, 0x0c, 0x13, 0x08, 0xf9, 0xfb, 0x08,
  0xf3, 0x0c, 0x04, 0xf6, 0x73, 0xcc, 0xc8, 0x74, 0xe7, 0x05, 0x25, 0xfe,
  0x12, 0x0d, 0xed, 0x07, 0xff, 0xe0, 0xf4, 0xdb, 0xfb, 0xd6, 0xed, 0xe3,
  0xe3, 0xde, 0x17, 0xcf, 0x1b, 0x34, 0x1a, 0x24, 0xf6, 0xef, 0x0d, 0x0a,
  0x0c, 0x10, 0x00, 0x10, 0xf8, 0x0d, 0x04, 0xf7, 0xed, 0xf6, 0x12, 0x02,
  0x14, 0x0a, 0xee, 0x06, 0xf5, 0x12, 0x12, 0xef, 0x10, 0xf7, 0x0b, 0xf7,
  0x03, 0x07, 0xf1, 0x11, 0x10, 0xef, 0x12, 0x08, 0x11, 0xfc, 0x03, 0x05,
  0xfd, 0x05, 0xf4, 0xf8, 0x04, 0xec, 0x0a, 0xed, 0x0b, 0x08, 0x0b, 0xf5,
  0xff, 0xfd, 0x12, 0xf2, 0x02, 0x04, 0xf9, 0x02, 0xee, 0x12, 0xee, 0xff,
  0x64, 0x4e, 0x72, 0x43, 0x64, 0x69, 0x3a, 0x7a, 0x0b, 0x41, 0x0d, 0x20,
  0x5e, 0x23, 0x56, 0x17, 0x51, 0x41, 0x1d, 0x3a, 0x2e, 0x3f, 0x24, 0x42,
  0x7c, 0x42, 0x6c, 0x3e, 0x4e, 0x17, 0x37, 0x3a, 0x01, 0x08, 0xf8, 0xf2,
  0x08, 0xf4, 0xf1, 0x0b, 0x05, 0xfd, 0xff, 0x0b, 0xf4, 0x11, 0xed, 0xff,
  0x03, 0x0f, 0xf0, 0xf3, 0xf4, 0xef, 0xf8, 0xfb, 0x0d, 0xf2, 0x10, 0x02,
  0xf4, 0xf9, 0xef, 0x09, 0x10, 0x13, 0x14, 0x06, 0x0b, 0x0c, 0xfe, 0x10,
  0xef, 0xef, 0x11, 0xf9, 0x06, 0xf2, 0xf0, 0x03, 0xed, 0x02, 0xf6, 0x05,
  0xfe, 0x0f, 0xff, 0x04, 0x0e, 0xf9, 0x02, 0xfe, 0x09, 0xfb, 0xfd, 0x14,
  0xbc, 0x18, 0xd4, 0xb6, 0xba, 0xe7, 0xf5, 0xee, 0x24, 0xf8, 0x21, 0xe9,
  0x1e, 0x5b, 0xbb, 0x47, 0xab, 0xdd, 0xf5, 0x27, 0x2c, 0x12, 0xe7, 0xcb,
  0x2e, 0xc6, 0xe6, 0x7e, 0x2f, 0xc6, 0xef, 0xe0, 0x0d, 0xfd, 0xf8, 0x07,
  0xf4, 0xf2, 0x0a, 0x03, 0x11, 0xf9, 0x09, 0x11, 0xfc, 0xf7, 0xf8, 0x03,
  0x0c, 0xfc, 0xf6, 0x07, 0x14, 0x07, 0x0a, 0xed, 0xee, 0x0f, 0xf9, 0x0d,
  0x0f, 0x0f, 0xfe, 0x11, 0xf8, 0x0a, 0xfa, 0xf4, 0x12, 0x0c, 0xf0, 0xfd,
  0x0e, 0x01, 0x01, 0x07, 0x01, 0xf9, 0xf6, 0xfc, 0xff, 0x05, 0xef, 0xfc,
  0x04, 0x0a, 0xfb, 0x0d, 0xf2, 0x00, 0x11, 0x00, 0x0d, 0xec, 0xef, 0x0d,
  0x32, 0x59, 0x50, 0x1e, 0x81, 0x0b, 0x27, 0x8e, 0xb2, 0x78, 0xb0, 0x9b,
  0xa0, 0x86, 0x15, 0xa9, 0x5c, 0x49, 0x7e, 0x3c, 0xdd, 0x0c, 0xe7, 0x06,
  0x2c, 0x15, 0x70, 0x55, 0x2f, 0xca, 0x75, 0x30, 0x08, 0x02, 0x0f, 0xfa,
  0xf4, 0x02, 0xfd, 0xf8, 0xfb, 0xec, 0x0a, 0x14, 0xf0, 0x00, 0xfe, 0x02,
  0xf6, 0xee, 0x06, 0xff, 0x0d, 0x11, 0x0d, 0xf8, 0x09, 0xf1, 0xfe, 0x06,
  0xed, 0xef, 0xfb, 0x02, 0x15, 0xfb, 0x0e, 0x0b, 0xec, 0xfe, 0x0e, 0xf5,
  0x12, 0xf0, 0x0d, 0x01, 0xfe, 0x13, 0xeb, 0x09, 0x0f, 0xf3, 0xf2, 0xeb,
  0x0f, 0x13, 0xf3, 0x12, 0xed, 0xec, 0x06, 0x09, 0x0d, 0x03, 0xf8, 0x0d,
  0x0e, 0xc7, 0xef, 0xd6, 0xe7, 0x07, 0x09, 0xc6, 0x66, 0x1e, 0xf0, 0xff,
  0xf8, 0x24, 0x01, 0x2a, 0x26, 0xfa, 0x1a, 0x1e, 0x0e, 0x1e, 0xfe, 0xf2,
  0xd4, 0xbb, 0x3b, 0x2e, 0x12, 0x56, 0xf8, 0x0b, 0xf4, 0xff, 0x09, 0xfe,
  0x07, 0x06, 0xf3, 0xf2, 0xf7, 0xf6, 0x0c, 0xfd, 0x03, 0xff, 0xf5, 0x03,
  0x11, 0x0d, 0x05, 0x04, 0xec, 0xfb, 0xfc, 0xee, 0x0a, 0x04, 0x14, 0x15,
  0xf1, 0x00, 0xef, 0xf4, 0x01, 0x0e, 0x08, 0xf4, 0x08, 0xfb, 0x02, 0x08,
  0x07, 0x01, 0xfa, 0x06, 0xf8, 0xf7, 0x06, 0x00, 0xff, 0xff, 0x04, 0x00,
  0x00, 0xf8, 0xf4, 0xf2, 0xf6, 0xff, 0x0b, 0xf6, 0xff, 0xf6, 0xfb, 0x05,
  0x20, 0x44, 0xfa, 0xf6, 0x13, 0x7f, 0xcd, 0x20, 0xc1, 0x25, 0x0c, 0xd9,
  0xf0, 0x2b, 0x22, 0x0b, 0x50, 0xe1, 0x52, 0xdd, 0x17, 0x2c, 0x3d, 0xfe,
  0x7c, 0x3e, 0xc7, 0xd2, 0x24, 0x12, 0x37, 0x1f, 0xf9, 0xf8, 0x0d, 0xfa,
  0x0e, 0xf5, 0x08, 0xfd, 0x0d, 0x0a, 0x02, 0x0f, 0xf6, 0x09, 0x0a, 0xfa,
  0xfe, 0xf3, 0x0c, 0x01, 0xf3, 0x0e, 0x09, 0x03, 0x09, 0xf7, 0xf3, 0xf5,
  0xfa, 0x06, 0xf9, 0x06, 0xfa, 0x0f, 0x06, 0xf4, 0xfe, 0xf9, 0xf8, 0xf2,
  0xfc, 0x01, 0xf8, 0x04, 0x03, 0x0c, 0x00, 0x03, 0xf4, 0x04, 0xfc, 0xf7,
  0x00, 0x05, 0xf4, 0xfb, 0x00, 0x02, 0x08, 0x03, 0xf2, 0xf8, 0xfd, 0x0d,
  0xfa, 0xd9, 0xf1, 0x4a, 0x09, 0xff, 0x14, 0xe0, 0x1c, 0x2f, 0xf7, 0xef,
  0x37, 0xf7, 0x25, 0xf8, 0x04, 0x16, 0xfa, 0xff, 0x04, 0x03, 0xfe, 0x0b,
  0x16, 0x68, 0x0d, 0x5b, 0xd3, 0xc8, 0x15, 0x26, 0x0e, 0x05, 0xfb, 0x05,
  0xff, 0xf9, 0x0a, 0x03, 0xff, 0xfa, 0x04, 0x03, 0xfe, 0xf4, 0x01, 0xf5,
  0xf3, 0xf3, 0xf6, 0x0e, 0xf6, 0x03, 0x06, 0xf6, 0x0c, 0x0e, 0xff, 0x02,
  0xf8, 0xfb, 0xfb, 0xf8, 0x08, 0xf6, 0xf7, 0xfb, 0x08, 0xf3, 0x05, 0xf4,
  0x06, 0x03, 0x0c, 0xff, 0x00, 0x0b, 0xfa, 0x07, 0x06, 0xf5, 0x00, 0xfa,
  0x01, 0x08, 0xf8, 0xfc, 0xfd, 0xf5, 0xf9, 0x09, 0x0e, 0xfb, 0xf1, 0xfb,
  0xe3, 0x07, 0xee, 0xce, 0xd5, 0x0b, 0xfa, 0xfa, 0xbb, 0xfb, 0xe3, 0xfe,
  0xd7, 0xec, 0xd6, 0xf3, 0x00, 0x0b, 0xfa, 0xd9, 0x02, 0xdc, 0x02, 0x14,
  0x0f, 0xec, 0x10, 0x01, 0xf0, 0xf3, 0xf1, 0xf0, 0xfc, 0x0b, 0xfd, 0xff,
  0x0b, 0xf8, 0x05, 0x06, 0x0e, 0xf4, 0xf3, 0xfe, 0xfb, 0xf8, 0xff, 0x01,
  0x0e, 0x0d, 0x0d, 0x07, 0x02, 0xfd, 0xfb, 0x02, 0xfe, 0x0c, 0xfa, 0x01,
  0xf2, 0xfb, 0x07, 0xfd, 0xec, 0xfc, 0xfb, 0xf1, 0xec, 0x04, 0x11, 0x01,
  0x02, 0xf9, 0xf4, 0xf9, 0x11, 0xee, 0x12, 0xee, 0x0b, 0x06, 0x14, 0xf9,
  0x08, 0x07, 0xf1, 0x04, 0x11, 0x0c, 0x0f, 0x00, 0x0a, 0xeb, 0xf6, 0xf9,
  0x02, 0x0e, 0x9b, 0xf9, 0x4b, 0x2a, 0x14, 0x7f, 0x35, 0xcb, 0x1e, 0x25,
  0x4e, 0x2c, 0xdd, 0xbc, 0xf5, 0x01, 0xdc, 0xcb, 0x32, 0xc9, 0xd8, 0xce,
  0xcf, 0xbf, 0xee, 0xef, 0x2c, 0x7b, 0xed, 0xf0, 0x01, 0x03, 0x0e, 0xfb,
  0x08, 0xf7, 0x02, 0x09, 0xf9, 0xf5, 0x08, 0x11, 0xf2, 0xf2, 0x05, 0xf9,
  0x11, 0x0e, 0xf2, 0x11, 0xf0, 0x00, 0x03, 0xf0, 0xfa, 0x0c, 0x14, 0x0d,
  0xf2, 0xf2, 0xf7, 0x13, 0xf0, 0xed, 0x05, 0x02, 0xf2, 0x04, 0xf8, 0x05,
  0x07, 0x14, 0xff, 0xf5, 0x10, 0xee, 0xfa, 0xfc, 0x11, 0x13, 0x13, 0x15,
  0x0d, 0x05, 0xfc, 0x01, 0x0b, 0xf3, 0x09, 0xec, 0x0e, 0x0c, 0xef, 0x0c,
  0x27, 0xd4, 0x04, 0x70, 0x70, 0xfc, 0x34, 0x64, 0xca, 0x21, 0x02, 0xc8,
  0x17, 0xfc, 0x30, 0xcf, 0x11, 0xfe, 0xe6, 0xbd, 0x5a, 0xb7, 0xbd, 0xcc,
  0xf4, 0x55, 0x28, 0x51, 0xaa, 0x38, 0x18, 0x3b, 0x0a, 0xfb, 0x0f, 0x04,
  0xf5, 0x01, 0x0b, 0xfd, 0xf2, 0x02, 0xfb, 0xf6, 0x08, 0x0a, 0x07, 0xec,
  0xfd, 0xf2, 0x13, 0x00, 0x05, 0x06, 0x0d, 0xf8, 0xf1, 0xf4, 0xf5, 0xf1,
  0x07, 0xf5, 0x0a, 0x00, 0x0f, 0x14, 0xfb, 0x11, 0xf0, 0x08, 0xfd, 0xf9,
  0xf2, 0xec, 0xee, 0xec, 0x07, 0x12, 0x02, 0xed, 0x13, 0x0f, 0x0c, 0xfd,
  0xf0, 0xed, 0x05, 0xf0, 0xfd, 0xf9, 0x14, 0x0c, 0xeb, 0xfc, 0xfe, 0x03,
  0x43, 0x45, 0x63, 0x33, 0x44, 0x10, 0x69, 0x0d, 0xda, 0x2a, 0xfc, 0x0f,
  0x4a, 0x35, 0x31, 0x13, 0x05, 0x05, 0x25, 0xdc, 0x1b, 0xe4, 0x42, 0x0f,
  0x69, 0x37, 0x11, 0xfe, 0x3d, 0xcb, 0x11, 0xfd, 0x01, 0xfa, 0xff, 0x0f,
  0x0a, 0xf9, 0xfc, 0xec, 0x12, 0xf1, 0x02, 0xf9, 0x02, 0x0b, 0xf3, 0xf4,
  0xf4, 0xed, 0x0b, 0x0c, 0x0b, 0xfc, 0xf9, 0x09, 0x09, 0x09, 0x0d, 0x0d,
  0xf4, 0x09, 0x09, 0x06, 0xef, 0x09, 0x02, 0x03, 0x01, 0x0f, 0x03, 0x0f,
  0xf0, 0x04, 0x02, 0x0f, 0x04, 0xf8, 0xf7, 0xfa, 0x03, 0x03, 0x03, 0xfa,
  0xf6, 0xfe, 0xf4, 0xfb, 0x0a, 0xf4, 0xfc, 0xf4, 0x05, 0xf2, 0xfa, 0xff,
  0x1d, 0x1f, 0x20, 0x2a, 0xec, 0xeb, 0x2d, 0x3a, 0x22, 0xda, 0xf9, 0x37,
  0xfa, 0xc7, 0x0b, 0xd8, 0x16, 0x50, 0xc6, 0xf8, 0xf6, 0xe6, 0xec, 0x36,
  0xd6, 0x18, 0x3c, 0xe1, 0x37, 0x52, 0xda, 0xdc, 0xf7, 0x09, 0xff, 0x03,
  0xf1, 0x05, 0xf6, 0x0a, 0xf8, 0x03, 0xf5, 0xfc, 0x01, 0xf8, 0xf7, 0xfd,
  0x05, 0x0d, 0x02, 0x06, 0xf5, 0x09, 0xf4, 0x00, 0xf6, 0xf6, 0xff, 0xf0,
  0x0c, 0xfe, 0x03, 0xf3, 0xf6, 0xf3, 0xff, 0xf9, 0xf8, 0x04, 0xf4, 0x08,
  0x10, 0x04, 0x04, 0xfa, 0xf2, 0x05, 0xf2, 0xf2, 0x0d, 0x0b, 0xef, 0xfc,
  0xf3, 0xf5, 0x07, 0x01, 0x05, 0x10, 0xf3, 0xfe, 0x0b, 0x08, 0xf6, 0x01,
  0xf8, 0x04, 0xe8, 0x0f, 0x7b, 0x07, 0x21, 0x7f, 0x49, 0xf4, 0x09, 0x44,
  0x57, 0x64, 0xe3, 0x29, 0xd2, 0x04, 0xc8, 0xdb, 0x2a, 0x19, 0x26, 0xdb,
  0x11, 0xf6, 0xdd, 0x27, 0x04, 0x46, 0xce, 0xef, 0x0e, 0xfa, 0xfa, 0xf2,
  0xf0, 0xf6, 0x11, 0x07, 0xf6, 0xfe, 0x08, 0x10, 0xf2, 0xff, 0xfe, 0x03,
  0xf0, 0xf3, 0xf5, 0xf0, 0xfa, 0x04, 0x10, 0xf5, 0xfd, 0xfa, 0x10, 0x06,
  0x0f, 0x10, 0xf2, 0x0c, 0xf6, 0x10, 0xfc, 0x04, 0x0b, 0xf6, 0xfb, 0x0c,
  0xf9, 0x08, 0x00, 0xf7, 0xf3, 0xfe, 0xf1, 0xf2, 0x11, 0xfc, 0xfd, 0xfe,
  0x03, 0xf0, 0xfd, 0x06, 0xfe, 0xfe, 0x0b, 0x07, 0xf0, 0xfc, 0xfe, 0xfd,
  0x05, 0x00, 0xcd, 0xff, 0xec, 0xe9, 0x10, 0x09, 0xb9, 0x21, 0xf0, 0x1c,
  0x1a, 0xe0, 0x4b, 0x24, 0x0f, 0xf0, 0x16, 0x13, 0xe9, 0xe6, 0x0a, 0xfc,
  0xf4, 0x21, 0xe7, 0xaf, 0xd0, 0x91, 0x0d, 0x47, 0xf1, 0xf9, 0xfc, 0xf3,
  0xfa, 0x09, 0x00, 0x04, 0x0a, 0xfc, 0x10, 0xfe, 0x00, 0xf1, 0xfd, 0x10,
  0xf7, 0x01, 0x0a, 0xfc, 0xfc, 0xfc, 0x0c, 0xfd, 0x09, 0xf1, 0x0d, 0x0a,
  0xf4, 0xf3, 0x05, 0xfc, 0xfc, 0xf5, 0x02, 0x0e, 0x05, 0x06, 0xf2, 0x01,
  0x0b, 0xf7, 0x03, 0xf1, 0xff, 0x06, 0x0f, 0x03, 0x04, 0x0d, 0x03, 0x0d,
  0xf9, 0xf0, 0x0a, 0xf2, 0xfc, 0x08, 0x03, 0x08, 0x10, 0xf5, 0x02, 0x01,
  0x20, 0xf1, 0x81, 0x21, 0x5f, 0x28, 0xd6, 0x23, 0xfb, 0xe3, 0xff, 0x24,
  0x3b, 0x4e, 0x18, 0x05, 0xdc, 0xe9, 0xe1, 0xf9, 0xef, 0xeb, 0x87, 0xef,
  0xf1, 0x2a, 0x18, 0xf0, 0x25, 0x50, 0xfe, 0xfd, 0x0c, 0xf5, 0x0c, 0xfa,
  0x06, 0xf9, 0xf3, 0x0d, 0xf9, 0xfd, 0xfd, 0xfe, 0xf4, 0x0b, 0xf9, 0x07,
  0x02, 0x0d, 0xf4, 0x03, 0xf3, 0x05, 0x0d, 0xfb, 0x0b, 0x08, 0x00, 0x08,
  0xf8, 0xf1, 0x03, 0x0b, 0x01, 0xf2, 0x0d, 0x0d, 0xfa, 0x07, 0xf5, 0xf7,
  0x0f, 0xf7, 0x02, 0xf1, 0xfc, 0xfb, 0xf8, 0x0d, 0x07, 0x08, 0xf5, 0xfa,
  0x02, 0x01, 0xff, 0xfb, 0x05, 0x0c, 0xf6, 0xf7, 0xf3, 0xf6, 0xf3, 0x05,
  0xd1, 0xea, 0x22, 0xea, 0x8d, 0xc4, 0x0f, 0xce, 0xd4, 0x2c, 0x0c, 0xde,
  0xb3, 0xc8, 0x0e, 0x11, 0x46, 0xe5, 0x25, 0x14, 0xec, 0xfc, 0xf5, 0x35,
  0x29, 0xfc, 0x2a, 0xdb, 0xd9, 0xb2, 0x3f, 0x30, 0xf1, 0xf6, 0xff, 0x01,
  0xf5, 0xf5, 0x07, 0x02, 0x04, 0xfc, 0x0d, 0xf2, 0x0c, 0xfe, 0x09, 0xf3,
  0xf8, 0x0f, 0xf8, 0xf8, 0xf2, 0xfb, 0xf7, 0xf4, 0x05, 0xf8, 0xf6, 0xf3,
  0x06, 0x0d, 0x10, 0x0b, 0x06, 0xf0, 0x06, 0xf6, 0x0e, 0xf8, 0xf7, 0xf4,
  0xfa, 0xfa, 0x03, 0xf0, 0x07, 0x0f, 0x0f, 0x0a, 0xf1, 0xf7, 0x01, 0xf9,
  0x04, 0x08, 0x06, 0xfa, 0x0c, 0x06, 0xf6, 0xf7, 0x0d, 0xfb, 0xfb, 0xfb,
  0x1b, 0x11, 0x1a, 0xfa, 0xf9, 0x00, 0xb9, 0x0a, 0x11, 0x49, 0xf5, 0x10,
  0xe2, 0xe9, 0x1c, 0xe2, 0x0a, 0x1e, 0x02, 0x27, 0x37, 0x34, 0x03, 0x1c,
  0xd5, 0xf6, 0xe4, 0xf3, 0x2f, 0x11, 0x05, 0xe5, 0xf0, 0x0a, 0xf1, 0xfc,
  0xfa, 0x0a, 0x0c, 0xff, 0x06, 0x02, 0x06, 0x0d, 0x03, 0x04, 0x0a, 0x08,
  0x00, 0x05, 0xf8, 0x03, 0xfa, 0xf4, 0xfa, 0xf8, 0xf4, 0x06, 0x0c, 0x0e,
  0x06, 0x02, 0x02, 0xf4, 0x05, 0x12, 0xef, 0xee, 0x07, 0xfa, 0xf1, 0xf7,
  0x12, 0x10, 0x00, 0xff, 0x03, 0xf0, 0xf4, 0x03, 0xef, 0x03, 0x0e, 0x0a,
  0x0d, 0xff, 0xee, 0xf2, 0x06, 0x02, 0x04, 0x07, 0xf3, 0x07, 0x10, 0xf4,
  0x3b, 0xe7, 0x29, 0x3e, 0x0e, 0xee, 0xe7, 0x1a, 0x23, 0xe4, 0xf2, 0x35,
  0x01, 0x0d, 0x06, 0x9e, 0xfb, 0x25, 0xce, 0xd9, 0xee, 0xef, 0x97, 0x19,
  0x81, 0x18, 0x25, 0x0e, 0x2a, 0x79, 0xdf, 0x00, 0xf7, 0xee, 0xff, 0xff,
  0xfd, 0xf5, 0x02, 0xf2, 0x0c, 0xf3, 0xfc, 0xf8, 0xef, 0x0a, 0x04, 0x03,
  0xf4, 0xf1, 0x13, 0xf9, 0x11, 0x07, 0x00, 0x02, 0xfe, 0xf6, 0x05, 0xee,
  0xf3, 0x04, 0xef, 0xf5, 0xee, 0xf1, 0x12, 0xf5, 0xf5, 0xf0, 0x13, 0x12,
  0xed, 0xf5, 0xf8, 0x0d, 0xf9, 0xf2, 0xfc, 0x05, 0x08, 0xf0, 0xf3, 0x05,
  0xfa, 0x01, 0x0c, 0x05, 0xfa, 0xf2, 0xf4, 0x00, 0xfd, 0xff, 0xfe, 0xf3,
  0xf2, 0xd7, 0x0f, 0x14, 0x5f, 0xf7, 0xeb, 0x78, 0x13, 0xdf, 0x33, 0x1f,
  0x4c, 0x6e, 0xd0, 0xe8, 0xf4, 0x04, 0xe3, 0xd8, 0x16, 0xf9, 0x0b, 0xf3,
  0xc8, 0xc9, 0x0f, 0x12, 0x04, 0x69, 0xd1, 0x02, 0xf2, 0x04, 0x02, 0xf1,
  0xf7, 0x0e, 0xf0, 0xfd, 0x10, 0xf7, 0xf4, 0xf3, 0x04, 0x04, 0xfd, 0xf1,
  0x04, 0x07, 0xf1, 0xfb, 0x13, 0x08, 0xf1, 0xef, 0xfc, 0x05, 0xf5, 0xfb,
  0xff, 0x0b, 0xef, 0x05, 0x13, 0xf9, 0x03, 0x04, 0xf9, 0xf4, 0x02, 0x06,
  0x02, 0xf0, 0xf7, 0xfa, 0xf6, 0x0d, 0xfe, 0x12, 0x09, 0x01, 0x0b, 0x0c,
  0xf5, 0xf9, 0xf8, 0x0d, 0x05, 0xfa, 0x01, 0x0f, 0x08, 0xee, 0xfa, 0x08,
  0x03, 0x15, 0x23, 0x0a, 0x46, 0xe1, 0x2f, 0xde, 0xc6, 0xfb, 0xe9, 0x3f,
  0x58, 0x30, 0x27, 0x58, 0xfa, 0x14, 0x1c, 0x1a, 0xe0, 0x04, 0x42, 0x30,
  0x2b, 0x1f, 0xe4, 0xd6, 0x0a, 0x81, 0xfa, 0x17, 0x0d, 0xfa, 0xf3, 0xf9,
  0xff, 0x06, 0xf1, 0x0c, 0xf7, 0x08, 0x07, 0xf7, 0xee, 0x0e, 0xf2, 0x0c,
  0x0f, 0xfa, 0xf6, 0xf3, 0x0a, 0xef, 0xf5, 0x03, 0xf7, 0xf3, 0xf7, 0x05,
  0x0b, 0x12, 0xfe, 0x0f, 0xfc, 0xfb, 0x0a, 0xf3, 0x07, 0x05, 0x0b, 0xf8,
  0xfc, 0xf7, 0xfa, 0xfb, 0xf9, 0x0b, 0xf7, 0xfb, 0x02, 0xf6, 0xf9, 0xf6,
  0x03, 0x08, 0x0c, 0xf7, 0x02, 0x02, 0x03, 0xf6, 0x01, 0xf4, 0x05, 0xf9,
  0x43, 0xd1, 0x7f, 0x49, 0x03, 0x38, 0xf1, 0xda, 0xea, 0x26, 0xff, 0xfc,
  0xba, 0xe5, 0x53, 0xe0, 0x7b, 0x1f, 0x29, 0xe3, 0xd1, 0x45, 0x07, 0x2c,
  0x0f, 0x40, 0x10, 0xdb, 0x03, 0xde, 0x2e, 0xf6, 0x0a, 0xf4, 0x0d, 0xfc,
  0x06, 0x06, 0x0b, 0x0c, 0xf7, 0x0d, 0xf7, 0xfd, 0x09, 0xf8, 0x03, 0x0c,
  0xff, 0xf9, 0xfe, 0x06, 0x05, 0xfa, 0x03, 0xf8, 0xf3, 0x0c, 0x05, 0x02,
  0x04, 0xf4, 0x02, 0x0d, 0xf4, 0x06, 0xf9, 0x07, 0x05, 0x04, 0x0d, 0xf5,
  0x01, 0xfc, 0x06, 0xfe, 0xf4, 0x0d, 0xfe, 0x06, 0x0c, 0x0b, 0x09, 0x05,
  0x0c, 0xfd, 0xfe, 0xf4, 0x02, 0x07, 0xfc, 0x01, 0x03, 0xfe, 0x0b, 0x06,
  0xe5, 0xe6, 0xc8, 0xe2, 0xed, 0xf3, 0xdd, 0x23, 0x23, 0xf4, 0x0b, 0x22,
  0x0a, 0x33, 0xca, 0x19, 0xd6, 0xe2, 0xff, 0x2d, 0xf3, 0x17, 0xeb, 0xdb,
  0xd6, 0xcc, 0xd3, 0xb5, 0x3d, 0x28, 0xdb, 0xe7, 0x0c, 0x0d, 0x07, 0x08,
  0x04, 0x07, 0x02, 0x0b, 0xf8, 0x06, 0x0a, 0x02, 0xf3, 0x0b, 0xf3, 0x01,
  0xf5, 0xf6, 0xf4, 0xfe, 0xf7, 0x0b, 0xf3, 0x02, 0x00, 0xfb, 0xfb, 0x03,
  0xf5, 0xf3, 0x06, 0x00, 0xfe, 0x09, 0x00, 0xfa, 0xf3, 0x0a, 0x09, 0x0b,
  0x02, 0x01, 0xf9, 0xfa, 0xf4, 0xfd, 0xf5, 0x0a, 0xf6, 0x07, 0xfc, 0x0b,
  0x06, 0xfa, 0x0c, 0x0b, 0xfe, 0xff, 0xf5, 0x06, 0xfe, 0xfd, 0x08, 0x07,
  0x07, 0xf9, 0xe2, 0xef, 0xf6, 0x0d, 0xf1, 0x04, 0xbc, 0xf7, 0x19, 0x0f,
  0xfd, 0xe7, 0xf4, 0x0c, 0x34, 0xf2, 0xfb, 0x10, 0xc7, 0xf3, 0x0a, 0x0e,
  0xec, 0x17, 0xdb, 0xf9, 0xd3, 0xda, 0x0f, 0x2a, 0x0a, 0xf5, 0x0a, 0x09,
  0x0b, 0xf9, 0xf6, 0x01, 0xf4, 0xfc, 0xf3, 0x06, 0xf6, 0x02, 0x05, 0x0c,
  0x02, 0x03, 0xf3, 0xf4, 0xfb, 0x0d, 0xfe, 0xf4, 0x0e, 0x04, 0xfc, 0x03,
  0xfd, 0x06, 0xfb, 0x0c, 0x03, 0x01, 0xf7, 0x02, 0xf8, 0xfb, 0x02, 0x06,
  0x05, 0xf7, 0x00, 0xfc, 0x04, 0x00, 0xfd, 0x04, 0xfb, 0xfb, 0xff, 0xf7,
  0x09, 0xfd, 0x02, 0xfa, 0x00, 0xfd, 0x07, 0x05, 0x01, 0xf9, 0x04, 0xfa,
  0x0f, 0xf4, 0x05, 0xf7, 0xfa, 0xfd, 0xe7, 0x10, 0xc0, 0xe5, 0x20, 0x1f,
  0xf8, 0xe9, 0x15, 0x32, 0xf8, 0xf0, 0xfa, 0x09, 0xdf, 0xe6, 0xea, 0x0e,
  0x28, 0x02, 0xfe, 0xc3, 0xee, 0xf2, 0xf6, 0x27, 0x06, 0x03, 0xf7, 0xfc,
  0xfc, 0xfc, 0x00, 0xfa, 0xfe, 0xfa, 0x08, 0xfc, 0x06, 0xff, 0x06, 0xfa,
  0xf8, 0x03, 0x01, 0xfc, 0xfa, 0x03, 0x04, 0xfb, 0xff, 0x08, 0x04, 0x03,
  0xfb, 0x07, 0x02, 0x00, 0x07, 0x07, 0x05, 0xfe, 0xfa, 0xfd, 0xf7, 0x02,
  0xf7, 0x04, 0x04, 0xff, 0xff, 0xfe, 0xfd, 0x05, 0x05, 0xff, 0x09, 0x01,
  0xfa, 0xfd, 0xfb, 0xfb, 0x05, 0xff, 0x09, 0x04, 0xfc, 0x02, 0x01, 0xf9,
  0x01, 0x81, 0xf9, 0x00, 0x1e, 0x00, 0xc8, 0xf1, 0x16, 0xfe, 0x15, 0x20,
  0x00, 0xc8, 0xfc, 0x00, 0x0f, 0x03, 0xfe, 0x11, 0x92, 0x05, 0xd3, 0x1c,
  0xe5, 0xdf, 0xe2, 0xe7, 0x0a, 0x17, 0xdb, 0x22, 0xfb, 0xff, 0x04, 0xf9,
  0x00, 0x08, 0xfa, 0xf8, 0xfb, 0xfc, 0x08, 0x02, 0xfc, 0x09, 0x05, 0x02,
  0xfe, 0x08, 0xfb, 0xff, 0xfd, 0x03, 0xfc, 0x02, 0xfc, 0x04, 0xfd, 0xf7,
  0x08, 0xf8, 0x00, 0x09, 0x01, 0x00, 0xf7, 0xfd, 0x03, 0xf9, 0x05, 0xf7,
  0x02, 0x08, 0x04, 0xf8, 0xfa, 0xfa, 0xfc, 0x04, 0xfb, 0x01, 0x00, 0xfb,
  0x01, 0x00, 0xf9, 0xfe, 0x02, 0x07, 0x02, 0xfe, 0x00, 0xf7, 0xf9, 0x02,
  0x0b, 0xd3, 0xe1, 0xf4, 0x0f, 0xf3, 0xef, 0xe1, 0xfd, 0xf9, 0xed, 0x09,
  0xe7, 0xf0, 0x03, 0xf2, 0xee, 0xf9, 0xe7, 0xf6, 0xee, 0x0b, 0xf4, 0xe0,
  0xe2, 0xe7, 0xdd, 0xd2, 0xe8, 0x15, 0xdd, 0xf2, 0xf9, 0x05, 0x00, 0xfd,
  0x08, 0xfa, 0x00, 0x02, 0xf9, 0xf7, 0x01, 0x02, 0xfc, 0x06, 0x01, 0xfe,
  0x06, 0xff, 0x07, 0xf9, 0xff, 0xf8, 0x09, 0x04, 0xf8, 0x04, 0xf8, 0x02,
  0x07, 0xf9, 0x03, 0x04, 0xf2, 0x09, 0x11, 0xfe, 0xfd, 0xfe, 0x12, 0xfb,
  0xf5, 0xfc, 0x0c, 0xef, 0x02, 0xf3, 0xf5, 0x0b, 0x0b, 0x0e, 0xf7, 0xf0,
  0x10, 0xfa, 0xf0, 0x0b, 0xf1, 0x11, 0xfb, 0xf2, 0x0a, 0xfc, 0x08, 0x07,
  0xf3, 0xf3, 0xac, 0x03, 0x42, 0x0b, 0xef, 0x43, 0x17, 0xd0, 0xf8, 0x04,
  0x29, 0x52, 0xed, 0xb3, 0xee, 0xc8, 0xcc, 0xd5, 0x4d, 0xcf, 0xcd, 0xc8,
  0xb1, 0xd7, 0x17, 0xeb, 0xfe, 0x5a, 0xe6, 0xdd, 0xf1, 0xf3, 0x0b, 0x0c,
  0xf4, 0x0a, 0x01, 0x02, 0xfe, 0x0a, 0x05, 0x0e, 0x06, 0xf3, 0x02, 0xf2,
  0xff, 0xf1, 0x0e, 0x05, 0x11, 0x11, 0xfc, 0xfe, 0x07, 0xef, 0x00, 0x0a,
  0x06, 0x07, 0x02, 0x0e, 0x0a, 0xf3, 0x11, 0xff, 0x05, 0xf6, 0xfc, 0xf7,
  0xee, 0x01, 0xfe, 0xf1, 0x06, 0xf7, 0x05, 0x05, 0x05, 0xf9, 0x09, 0x0a,
  0xf5, 0xfe, 0x0d, 0x08, 0xf6, 0xf2, 0xf1, 0xfe, 0x08, 0x02, 0xf3, 0xfa,
  0x22, 0x0b, 0x0f, 0x3e, 0x59, 0x10, 0x1c, 0x75, 0xea, 0x1d, 0x15, 0xd3,
  0x14, 0xf7, 0x2a, 0xea, 0x12, 0xda, 0xed, 0xc4, 0x16, 0xcc, 0xb6, 0xfc,
  0xf7, 0x37, 0x29, 0x20, 0xf1, 0x2e, 0x27, 0x36, 0x05, 0xf1, 0xf3, 0xfe,
  0x05, 0xee, 0xfe, 0xf8, 0x08, 0xfc, 0xf7, 0xff, 0x11, 0xf1, 0x05, 0x10,
  0x0b, 0xf4, 0xf4, 0xf6, 0x00, 0x01, 0xf2, 0x11, 0x01, 0xfd, 0x0d, 0xfd,
  0xf1, 0xf7, 0xef, 0xfd, 0xfc, 0xf9, 0xf8, 0x0b, 0x00, 0xf1, 0xff, 0x0e,
  0x0a, 0xf3, 0xf1, 0x05, 0x0b, 0xf3, 0xee, 0x12, 0xfa, 0x0e, 0x06, 0x05,
  0x0e, 0xf6, 0x0c, 0x0a, 0xf4, 0x0f, 0x09, 0xfb, 0x12, 0x11, 0x0f, 0xf1,
  0x55, 0x5c, 0x5d, 0x3c, 0x5d, 0x26, 0x42, 0x25, 0xee, 0x20, 0x02, 0x10,
  0x5d, 0x3d, 0x51, 0xff, 0x0c, 0x2f, 0x12, 0x03, 0x20, 0xf6, 0x22, 0x1a,
  0x7f, 0x3a, 0x1b, 0xf6, 0x49, 0xee, 0x2b, 0xf7, 0x01, 0xf4, 0x07, 0x09,
  0xf6, 0x10, 0x11, 0x06, 0xf0, 0x0d, 0x07, 0xf6, 0x0e, 0x0c, 0xf7, 0x0a,
  0x0d, 0xfc, 0xfa, 0x0d, 0xef, 0xf4, 0xf9, 0x0d, 0x03, 0x0b, 0x10, 0xfd,
  0x0f, 0x04, 0x0a, 0xfe, 0x09, 0xf4, 0xfd, 0x05, 0xf5, 0xff, 0xf9, 0x0f,
  0xf3, 0x06, 0xfd, 0xfd, 0x10, 0xfa, 0x06, 0xf3, 0x0c, 0x11, 0x0b, 0xfc,
  0xf8, 0x10, 0xf6, 0x08, 0x02, 0xf8, 0x11, 0x01, 0x04, 0xf4, 0xff, 0x0b,
  0x23, 0x0b, 0x6a, 0x0b, 0xf4, 0x1c, 0xf8, 0xa7, 0xb5, 0x22, 0x4a, 0xbf,
  0xb7, 0xb3, 0x25, 0x28, 0x38, 0x0c, 0x24, 0x36, 0x20, 0xfc, 0x2a, 0x44,
  0x48, 0x13, 0x25, 0xa1, 0xef, 0xc5, 0x32, 0x42, 0xf9, 0x07, 0xfe, 0xf4,
  0x01, 0xf5, 0xf6, 0xf1, 0x00, 0xf9, 0xf5, 0xfd, 0xf9, 0xf2, 0xf6, 0x0e,
  0x0c, 0x06, 0xfb, 0xff, 0xfb, 0xfa, 0x0e, 0xf6, 0x01, 0xf1, 0x05, 0xf9,
  0xf6, 0x0c, 0xff, 0xff, 0x0c, 0x0e, 0xfb, 0x11, 0x00, 0x08, 0x02, 0x0c,
  0x03, 0xf8, 0x06, 0x0d, 0x11, 0xfb, 0x0d, 0x10, 0xfb, 0x10, 0x12, 0xfa,
  0xff, 0x00, 0x0b, 0x0d, 0x0c, 0xee, 0xf6, 0xf5, 0x0e, 0xf9, 0xff, 0x04,
  0x01, 0xad, 0xef, 0x0f, 0xfc, 0xfc, 0xa9, 0xfb, 0xfc, 0xc2, 0x46, 0x16,
  0xfc, 0x2e, 0x19, 0xfa, 0x0e, 0x26, 0xe1, 0x21, 0xa0, 0x1a, 0xc1, 0x0f,
  0x06, 0x0e, 0xed, 0xbc, 0x31, 0x15, 0xbf, 0xfe, 0xf9, 0xf6, 0xfb, 0x12,
  0xfa, 0x09, 0x0f, 0xf6, 0xf7, 0xf9, 0xf6, 0xf9, 0xf5, 0x08, 0xfa, 0xf4,
  0x02, 0xf3, 0x0d, 0x0d, 0x04, 0xfd, 0xf0, 0x0d, 0xef, 0xf0, 0x0c, 0x0c,
  0xf5, 0xf8, 0xfc, 0xfa, 0x0c, 0xf5, 0x08, 0xf4, 0x0f, 0x00, 0xf1, 0x07,
  0xf4, 0x06, 0x08, 0xfc, 0x11, 0x0c, 0xf8, 0x05, 0x05, 0x06, 0xfd, 0x11,
  0x07, 0xfa, 0x10, 0x08, 0xf4, 0xfb, 0x01, 0x10, 0x0f, 0x0e, 0x00, 0x05,
  0xd6, 0x93, 0xb7, 0xcb, 0x90, 0xc8, 0xf5, 0xc8, 0xcc, 0x81, 0xc6, 0xe9,
  0xed, 0x18, 0xd6, 0xdc, 0xe4, 0xc5, 0xc0, 0x90, 0xbb, 0xe8, 0xee, 0xc0,
  0xc7, 0xb6, 0xc8, 0xdb, 0xd1, 0xd7, 0xd4, 0xe0, 0xf5, 0x0a, 0xfb, 0x04,
  0x09, 0x01, 0x0b, 0xff, 0xff, 0xf8, 0xf1, 0x00, 0x0c, 0xf5, 0xf0, 0xfa,
  0xf9, 0xf2, 0x03, 0xfa, 0xef, 0xf1, 0x10, 0x01, 0xff, 0x10, 0x05, 0x11,
  0xf8, 0xfa, 0x11, 0x09, 0xff, 0xf5, 0xf4, 0xfa, 0x07, 0xfb, 0x08, 0xf4,
  0x0c, 0x06, 0xfc, 0xf3, 0x00, 0xfb, 0xfd, 0xf7, 0xf8, 0x03, 0x0c, 0xfa,
  0x03, 0xfb, 0xf7, 0xf6, 0x0f, 0xf2, 0xfb, 0xf3, 0x09, 0x05, 0x06, 0x08,
  0xfb, 0x35, 0xec, 0xd8, 0xe5, 0xed, 0x34, 0x20, 0x4c, 0x23, 0xe2, 0xf7,
  0xf8, 0xee, 0xf5, 0x25, 0x05, 0xf7, 0x13, 0x29, 0x1c, 0x37, 0x60, 0x0a,
  0xeb, 0xa0, 0x9e, 0x5b, 0x15, 0xc3, 0x06, 0xb7, 0x0d, 0xf5, 0x0f, 0xfa,
  0xf7, 0x07, 0xf3, 0xf7, 0x0a, 0xf7, 0xf0, 0xf8, 0xfb, 0xf4, 0x07, 0x06,
  0x06, 0xfe, 0x03, 0x0b, 0xfc, 0xf7, 0xf5, 0x0d, 0x05, 0x01, 0xfd, 0x08,
  0x05, 0x07, 0x03, 0x06, 0xf4, 0xfe, 0xf8, 0x09, 0x0d, 0x05, 0x09, 0xf8,
  0x03, 0xf7, 0x06, 0xf1, 0x02, 0xfa, 0xf7, 0xf8, 0x0b, 0xfa, 0xf4, 0xf9,
  0x10, 0x0a, 0xfd, 0x07, 0xfa, 0xfe, 0xf8, 0xfa, 0xf2, 0xf3, 0xfa, 0x0d,
  0xd1, 0x7f, 0x16, 0xba, 0xc8, 0xc8, 0xd6, 0xed, 0x90, 0x12, 0xe0, 0xab,
  0xf8, 0x01, 0xf2, 0x03, 0xcd, 0xd5, 0x0f, 0xa0, 0x4a, 0xe7, 0xe9, 0x07,
  0xec, 0xe6, 0xff, 0x4c, 0x2a, 0xbd, 0x17, 0xc7, 0xf5, 0x0e, 0x05, 0x0c,
  0xf1, 0x02, 0xfb, 0xfb, 0x05, 0xfa, 0x0c, 0x09, 0xf4, 0xf1, 0x0c, 0x0a,
  0xf1, 0x0a, 0x05, 0x0c, 0x07, 0x05, 0x10, 0xf2, 0x09, 0xf4, 0x10, 0x09,
  0xf4, 0xf7, 0xf2, 0x0b, 0x09, 0xf0, 0xfa, 0x10, 0x06, 0x0d, 0xf9, 0x07,
  0x09, 0x09, 0x0e, 0x03, 0x08, 0xf1, 0x01, 0xfa, 0x0f, 0xf3, 0xfb, 0xfd,
  0x04, 0x02, 0xf8, 0x04, 0x00, 0xf4, 0xf8, 0xfe, 0x0b, 0xf2, 0x05, 0xf1,
  0xcd, 0x64, 0x29, 0xdf, 0xc2, 0xef, 0xf9, 0xb9, 0x18, 0x00, 0x10, 0xf7,
  0xf3, 0x1a, 0xcf, 0x16, 0xee, 0xe9, 0x22, 0x30, 0x36, 0xc5, 0x0f, 0xeb,
  0x00, 0xe2, 0x13, 0x57, 0xfe, 0xe3, 0x2a, 0xfa, 0x0d, 0x07, 0xf7, 0x06,
  0xf1, 0xff, 0xfb, 0x0e, 0x07, 0x0f, 0xfd, 0xf4, 0xf4, 0xf5, 0xfb, 0x0e,
  0xf2, 0x05, 0xf6, 0xfe, 0x09, 0xf5, 0x02, 0x0b, 0xf5, 0xf8, 0xf0, 0xfe,
  0x0c, 0x0c, 0x04, 0xff, 0xf8, 0x06, 0x0c, 0xf2, 0xfd, 0x07, 0x07, 0x0f,
  0x03, 0x04, 0x0c, 0xf5, 0xf7, 0x0a, 0x07, 0xf4, 0x0a, 0x0b, 0xfd, 0x0e,
  0x07, 0xf5, 0x0b, 0x06, 0x0a, 0x0c, 0xf9, 0x0a, 0xf8, 0x01, 0x05, 0xf3,
  0x07, 0x1f, 0xcc, 0xdc, 0x40, 0x4e, 0x2d, 0x53, 0x00, 0xfb, 0x05, 0xea,
  0xfc, 0x1a, 0x00, 0xf3, 0x4c, 0xf0, 0x46, 0xe7, 0x48, 0x06, 0x13, 0xe0,
  0x1f, 0xf4, 0xfc, 0xc7, 0x1d, 0x25, 0x23, 0x0f, 0x0b, 0x04, 0x0d, 0x01,
  0x09, 0xff, 0xff, 0xf2, 0x06, 0xf3, 0xfb, 0x0d, 0x0e, 0xfc, 0x08, 0xf6,
  0xf9, 0x0e, 0x0e, 0xf1, 0xf2, 0x03, 0xf2, 0x02, 0xf9, 0xfd, 0xf5, 0x03,
  0x02, 0x02, 0xf3, 0xf1, 0xf5, 0x07, 0x04, 0xfe, 0x0d, 0xf8, 0x07, 0xf3,
  0xfb, 0x08, 0xfd, 0xf4, 0x0b, 0xf8, 0x08, 0xf2, 0x0a, 0xfd, 0xfc, 0x02,
  0xfb, 0x0c, 0x0f, 0xfa, 0x03, 0xf2, 0x01, 0xfc, 0xf6, 0x08, 0x05, 0x04,
  0x1c, 0xe6, 0xee, 0x4d, 0x2f, 0x03, 0x4c, 0x3b, 0xd1, 0x21, 0xf8, 0xcb,
  0x21, 0xe6, 0x24, 0xf4, 0x09, 0x05, 0x07, 0xf8, 0x39, 0xec, 0xe7, 0xe0,
  0x1f, 0x7f, 0x19, 0x5c, 0x9d, 0x27, 0x14, 0x53, 0xf4, 0xff, 0x08, 0xf0,
  0xf7, 0x00, 0x04, 0xfa, 0xfb, 0x07, 0xff, 0x0f, 0x03, 0xf7, 0xf2, 0xfb,
  0xf5, 0xfd, 0xfd, 0x03, 0xfc, 0x05, 0x0a, 0xf7, 0xf2, 0x03, 0x01, 0xff,
  0x0f, 0xfd, 0x06, 0x0d, 0xf2, 0x0d, 0x0e, 0xf5, 0x01, 0x03, 0x07, 0xfc,
  0xf6, 0xfc, 0x0b, 0x03, 0x0b, 0xfd, 0xf9, 0xf1, 0xf0, 0xfc, 0x00, 0xfa,
  0xfd, 0xff, 0xf3, 0x01, 0x0f, 0x07, 0xfe, 0x0b, 0xf8, 0xf4, 0xf3, 0xfd,
  0x48, 0x22, 0x0a, 0x0e, 0x06, 0xed, 0x1c, 0xfc, 0xd9, 0x44, 0x0c, 0xdb,
  0xc6, 0xbe, 0x43, 0xc2, 0xee, 0x2b, 0x1a, 0xfc, 0x23, 0xf1, 0xd7, 0xf0,
  0x14, 0x2a, 0x0b, 0xfa, 0x32, 0xe5, 0x1b, 0x09, 0xf7, 0x01, 0x04, 0x07,
  0x0f, 0xf5, 0x0a, 0x0d, 0x02, 0xf7, 0x02, 0x05, 0x00, 0xf2, 0x04, 0x0a,
  0xf2, 0xfd, 0x09, 0x06, 0xf8, 0xf7, 0x0d, 0xfb, 0xfd, 0xf2, 0x01, 0x0f,
  0xff, 0x08, 0xf9, 0xf9, 0x0b, 0xf9, 0xfc, 0x0c, 0x11, 0x0a, 0x0e, 0x06,
  0x00, 0x06, 0x0b, 0x0c, 0xfa, 0xfe, 0xf5, 0x0a, 0xf2, 0x0b, 0x00, 0xf4,
  0x0b, 0x0b, 0x0d, 0x0b, 0xfa, 0x04, 0xff, 0xfa, 0x0f, 0x01, 0x06, 0x05,
  0xda, 0x1e, 0xdc, 0xc2, 0xd2, 0x13, 0xaa, 0xb3, 0x03, 0x08, 0xf7, 0xc4,
  0x02, 0x4d, 0xe6, 0x1b, 0xeb, 0xb6, 0x13, 0x55, 0xf5, 0xfa, 0xfb, 0xe8,
  0x43, 0xd5, 0xd9, 0x3d, 0xf2, 0x0c, 0x17, 0xd8, 0x06, 0xf1, 0x11, 0x0c,
  0x06, 0xf6, 0xf8, 0x0d, 0xfc, 0x0d, 0xff, 0x09, 0x06, 0xf4, 0xf4, 0x0d,
  0x08, 0x0d, 0x08, 0xfd, 0x07, 0x0b, 0xf9, 0x0b, 0xfa, 0x07, 0xf2, 0xf6,
  0xf3, 0x0d, 0x0d, 0xff, 0xf0, 0x08, 0xf4, 0x06, 0xff, 0x04, 0xfc, 0x0c,
  0x05, 0xf1, 0x08, 0xf5, 0xf7, 0xfd, 0xf0, 0xfd, 0xf1, 0x0e, 0x09, 0xf4,
  0x10, 0x11, 0x05, 0xff, 0x10, 0xf4, 0xf3, 0x02, 0x00, 0xf1, 0x0f, 0x11,
  0x3b, 0x25, 0x0e, 0x29, 0xcd, 0x00, 0x0e, 0x81, 0xf2, 0x56, 0x02, 0xce,
  0xca, 0xa0, 0x38, 0xdb, 0x0f, 0x49, 0x6d, 0x6f, 0x1c, 0x0d, 0xf3, 0x16,
  0x3b, 0x07, 0x28, 0x04, 0x23, 0xf4, 0x5e, 0x2d, 0xf6, 0x0c, 0xff, 0x06,
  0x04, 0x00, 0x01, 0xf7, 0xf0, 0x05, 0x11, 0x09, 0xf3, 0x02, 0x00, 0x00,
  0x07, 0xf5, 0xf0, 0x0c, 0xf2, 0xfd, 0xff, 0x10, 0xfc, 0xf2, 0xf3, 0x01,
  0xfb, 0x11, 0x06, 0x0b, 0xfc, 0xf9, 0xfd, 0x01, 0x08, 0x0b, 0xf6, 0xf0,
  0x0a, 0x02, 0x04, 0x0d, 0x0f, 0x0a, 0xfc, 0x06, 0xfd, 0xfa, 0x0a, 0x0f,
  0x0a, 0xef, 0xf4, 0xf8, 0xf7, 0xf8, 0x09, 0xfb, 0x0b, 0x11, 0x06, 0x0b,
  0x04, 0xfa, 0x02, 0x07, 0x17, 0x2a, 0xd3, 0xe9, 0x0c, 0xdd, 0x0f, 0x02,
  0x1b, 0x2d, 0x07, 0x05, 0x0e, 0xf7, 0x0a, 0xf1, 0x19, 0x1f, 0x00, 0xff,
  0x17, 0xfa, 0x2a, 0xfd, 0xef, 0x07, 0xd4, 0xef, 0xfa, 0xf0, 0x07, 0xf4,
  0xf2, 0xf3, 0x01, 0x08, 0x07, 0xfa, 0xf6, 0x0c, 0x00, 0xfe, 0x03, 0xfd,
  0x02, 0x07, 0x08, 0x0f, 0x07, 0x06, 0x0b, 0xf7, 0x05, 0xfe, 0x07, 0x03,
  0xfa, 0x05, 0xfe, 0xf0, 0xf1, 0x0c, 0x07, 0xf6, 0x0c, 0x08, 0x01, 0xf3,
  0xf9, 0x04, 0xf8, 0x03, 0x0e, 0xf9, 0xf7, 0xf3, 0xfa, 0x03, 0xf1, 0x03,
  0xf6, 0xf5, 0xf3, 0x02, 0x06, 0xf1, 0x09, 0x08, 0xfb, 0xff, 0xff, 0x0e,
  0x4a, 0xf0, 0x5d, 0x04, 0xde, 0x4a, 0x17, 0xe0, 0xff, 0x24, 0x0f, 0xf4,
  0xdc, 0xb6, 0x4e, 0x2d, 0x51, 0x29, 0x34, 0x3e, 0xdb, 0x7f, 0x3d, 0x67,
  0x0e, 0x04, 0xd5, 0xef, 0xb0, 0xee, 0x45, 0xf3, 0xf1, 0xf2, 0xf4, 0x07,
  0xf9, 0xf2, 0xfc, 0xf9, 0xf8, 0x09, 0xf6, 0xf1, 0xfd, 0x07, 0xfc, 0xf8,
  0x07, 0xfd, 0xf8, 0xf6, 0xf7, 0x0d, 0x0d, 0x09, 0xf3, 0x08, 0xf1, 0x0d,
  0xf3, 0x01, 0xff, 0x0e, 0xfe, 0xf1, 0xfc, 0x0d, 0x04, 0xfb, 0xf5, 0x02,
  0x04, 0xf1, 0x00, 0x0c, 0xf9, 0x0b, 0x0f, 0xfc, 0xfc, 0x00, 0xf1, 0xfc,
  0xf5, 0xfb, 0x00, 0x0a, 0x0f, 0x10, 0xfc, 0x0d, 0xff, 0xf8, 0x06, 0xfd,
  0xd9, 0xb2, 0xe3, 0xcd, 0x06, 0xf7, 0xf6, 0xf5, 0xc4, 0xf5, 0x2a, 0x30,
  0x04, 0x10, 0xc8, 0x4f, 0xcf, 0xd3, 0x0d, 0x28, 0xc1, 0x13, 0xf5, 0xea,
  0x03, 0xff, 0xca, 0xea, 0xb7, 0xd1, 0xec, 0x23, 0xf6, 0xfd, 0x05, 0x02,
  0x03, 0xf6, 0x08, 0xf5, 0x02, 0xf7, 0x0b, 0x09, 0xfe, 0x05, 0xf4, 0x03,
  0x00, 0xfb, 0xf1, 0x07, 0xfb, 0xfe, 0x07, 0x06, 0xf0, 0x0c, 0xfa, 0xfd,
  0xff, 0xf6, 0xfd, 0x04, 0x0a, 0x0b, 0x08, 0x0c, 0xfe, 0x0f, 0x05, 0x01,
  0xf8, 0x0b, 0xf4, 0xf7, 0x08, 0x10, 0xfb, 0xf2, 0xf7, 0xf4, 0xfb, 0x03,
  0x08, 0xf2, 0x02, 0x09, 0xf3, 0x00, 0x0f, 0xfe, 0x04, 0xf2, 0xf9, 0x00,
  0xfe, 0xdb, 0xcd, 0x1a, 0xf4, 0xf7, 0x08, 0x09, 0xde, 0xfe, 0x0d, 0xff,
  0x07, 0x0c, 0x0e, 0x0d, 0x32, 0xf3, 0xfa, 0x30, 0x06, 0x1f, 0x02, 0x14,
  0xf0, 0x16, 0xed, 0xff, 0xd2, 0x13, 0x34, 0x15, 0xf4, 0xfb, 0xfc, 0xf3,
  0xfa, 0x01, 0xff, 0x02, 0x04, 0x0f, 0x05, 0x0a, 0xfa, 0x09, 0x07, 0x06,
  0x03, 0x0a, 0x0f, 0x08, 0xf8, 0x09, 0xfa, 0xf5, 0xf4, 0x05, 0xfa, 0x07,
  0x07, 0x0a, 0xfe, 0x0e, 0xfd, 0xf5, 0xf4, 0xf4, 0x11, 0x02, 0xf8, 0xfd,
  0xfc, 0xfc, 0xfa, 0xf3, 0xf2, 0xfc, 0xf8, 0xf1, 0x01, 0xfb, 0x09, 0xf1,
  0x0b, 0x0b, 0xf7, 0x0a, 0xf1, 0x0e, 0xf9, 0x08, 0x03, 0xf4, 0xf7, 0x0b,
  0x12, 0xe4, 0xd9, 0x0e, 0x47, 0xf5, 0xfa, 0x3f, 0x27, 0xcf, 0x04, 0x43,
  0x39, 0x36, 0xea, 0x98, 0xfc, 0x09, 0xcd, 0xd6, 0xf8, 0xe5, 0xb0, 0xe5,
  0xa2, 0xdd, 0x13, 0x01, 0x23, 0x72, 0xe5, 0xbf, 0xf8, 0x0e, 0xfd, 0xf1,
  0x0e, 0xf3, 0xf1, 0xf9, 0xf7, 0x0f, 0x0c, 0x05, 0xef, 0x0b, 0xf9, 0x0e,
  0xf4, 0xf8, 0x06, 0x00, 0xfc, 0xfb, 0x0b, 0xf4, 0x10, 0x01, 0x0f, 0x10,
  0x01, 0x0a, 0x0c, 0x0f, 0x09, 0xf0, 0x07, 0xf1, 0xef, 0x03, 0xfb, 0xf8,
  0xf1, 0xfa, 0xf7, 0x03, 0x01, 0x10, 0xfe, 0xf2, 0x0c, 0x11, 0x02, 0x0c,
  0x11, 0x06, 0x08, 0x06, 0xf2, 0x07, 0x01, 0xf8, 0xf7, 0x08, 0x10, 0x00,
  0x0b, 0xec, 0x0a, 0x16, 0x70, 0xfe, 0x09, 0x7f, 0xe4, 0x1a, 0x2a, 0x03,
  0x0a, 0x07, 0x04, 0xe3, 0x06, 0xfc, 0xee, 0xeb, 0x2f, 0xcd, 0xdd, 0xd2,
  0xf7, 0x23, 0x0d, 0x28, 0xe7, 0x45, 0xff, 0x13, 0x00, 0xef, 0xfb, 0xfe,
  0xf0, 0x0e, 0xf6, 0xf4, 0xff, 0xf7, 0x0d, 0xfe, 0xf1, 0x00, 0x06, 0x0e,
  0x0e, 0x00, 0x02, 0xf7, 0x0d, 0x09, 0x0f, 0xf9, 0x09, 0xfe, 0xef, 0x05,
  0x10, 0x01, 0xf5, 0xf2, 0x10, 0xfb, 0xff, 0xf3, 0x04, 0xf5, 0xfe, 0x09,
  0x0b, 0x03, 0xf3, 0xff, 0x01, 0xfc, 0x02, 0xf5, 0x0b, 0xf3, 0xf5, 0x0b,
  0xf3, 0x05, 0x09, 0xf8, 0x0d, 0xfa, 0x0b, 0x07, 0x09, 0x05, 0xfb, 0xfa,
  0x41, 0x22, 0x46, 0x29, 0x2f, 0x20, 0x48, 0x49, 0xf1, 0x2f, 0xe7, 0x02,
  0x61, 0x15, 0x2c, 0xf8, 0x17, 0x19, 0x05, 0xe5, 0x09, 0x09, 0x03, 0x27,
  0x5f, 0x33, 0x1c, 0x06, 0x3b, 0xff, 0x19, 0xef, 0xf0, 0x04, 0x08, 0x0a,
  0x01, 0xf5, 0x0f, 0xf2, 0x0c, 0xfd, 0x05, 0xfc, 0x04, 0xf8, 0x0b, 0xf7,
  0x02, 0x01, 0x0d, 0xfa, 0xff, 0x00, 0xfd, 0x00, 0x06, 0x03, 0x0e, 0xfd,
  0x09, 0x06, 0xfc, 0x0a, 0x0a, 0xf0, 0xfb, 0x0a, 0xff, 0x09, 0x09, 0xf9,
  0xfb, 0x0e, 0x0b, 0x0f, 0xf4, 0xff, 0x07, 0x0d, 0x0c, 0x0b, 0xf8, 0xfc,
  0xff, 0xf5, 0xff, 0xf6, 0x0c, 0xfd, 0x05, 0x07, 0xff, 0xfe, 0x02, 0x0a,
  0x3a, 0xe4, 0x7f, 0x1b, 0xfb, 0xfe, 0x28, 0x09, 0xd8, 0x0e, 0x08, 0x0d,
  0xc3, 0xa4, 0x1e, 0x29, 0x45, 0x6c, 0x42, 0x5d, 0xb3, 0x25, 0x05, 0x61,
  0x00, 0x68, 0x19, 0xb7, 0xc8, 0x09, 0x1b, 0x59, 0x0c, 0xf6, 0x0a, 0xfb,
  0xf2, 0xf4, 0xf2, 0xf7, 0xf8, 0x10, 0xf0, 0x0c, 0x06, 0xf3, 0x0b, 0x03,
  0xf9, 0x05, 0x0c, 0x10, 0xfe, 0x0f, 0x0d, 0xfa, 0xf5, 0x00, 0x05, 0xf0,
  0x0a, 0x09, 0xf2, 0xf9, 0xf6, 0xfc, 0x07, 0x0d, 0xfc, 0x0d, 0x00, 0x0e,
  0xf5, 0xf1, 0x0d, 0x01, 0x09, 0x05, 0x08, 0x02, 0xf0, 0xf5, 0xf5, 0xf0,
  0xf2, 0xf8, 0xfc, 0x0b, 0x0f, 0x01, 0x10, 0xf9, 0xf8, 0x0e, 0x0c, 0x00,
  0xe9, 0xc1, 0xf3, 0x12, 0x19, 0x37, 0xe2, 0x31, 0x12, 0x08, 0xfe, 0x1f,
  0x2e, 0x23, 0xea, 0x31, 0x0b, 0x13, 0x27, 0x44, 0xb7, 0x1e, 0x28, 0x25,
  0xe2, 0xe9, 0xde, 0xd8, 0x1c, 0x3b, 0xe3, 0x1c, 0x0c, 0x01, 0x0b, 0x10,
  0xf4, 0xf8, 0x0a, 0x0d, 0xfd, 0x04, 0xff, 0x0d, 0x03, 0xfb, 0x0f, 0xfc,
  0xf8, 0x0e, 0xfb, 0x0d, 0x00, 0xfd, 0x0e, 0x0b, 0xf7, 0x10, 0xf1, 0xfb,
  0xfd, 0x01, 0xf5, 0x06, 0x09, 0xf3, 0x0a, 0xf6, 0xf8, 0x06, 0x03, 0x00,
  0xf0, 0xf0, 0x10, 0xf1, 0xf6, 0x0a, 0x0e, 0xfe, 0xf1, 0x07, 0x0c, 0xf8,
  0xf2, 0x0d, 0x0f, 0xf1, 0xfb, 0xfc, 0x0e, 0xfb, 0x05, 0x0e, 0xfc, 0x04,
  0xf5, 0xd6, 0xf5, 0x0f, 0xf9, 0x11, 0x05, 0x12, 0xe8, 0xe7, 0x29, 0x0e,
  0x2c, 0x04, 0x0e, 0xf7, 0x3b, 0xf5, 0xf6, 0x16, 0xc9, 0x1f, 0xed, 0x25,
  0xdf, 0x21, 0xf4, 0x07, 0xe1, 0x06, 0x29, 0x12, 0xf8, 0x05, 0xf6, 0xf3,
  0x06, 0xf9, 0x0c, 0xf6, 0xfb, 0x05, 0x08, 0xf0, 0xf3, 0xf1, 0x08, 0xf3,
  0x0c, 0x05, 0xf5, 0x03, 0x01, 0xf3, 0xf2, 0x0e, 0x0e, 0xfb, 0x00, 0x0d,
  0xf0, 0xf5, 0x0f, 0x09, 0x56, 0xea, 0xff, 0xff, 0x04, 0x00, 0x00, 0x00,
  0x80, 0x00, 0x00, 0x00, 0x19, 0xd0, 0xff, 0xff, 0xe9, 0xc5, 0xff, 0xff,
  0x58, 0xfe, 0xff, 0xff, 0xbf, 0xfe, 0xff, 0xff, 0x0c, 0xf4, 0xff, 0xff,
  0xb4, 0xdc, 0xff, 0xff, 0x3b, 0xd6, 0xff, 0xff, 0x65, 0xe9, 0xff, 0xff,
  0xa0, 0x01, 0x00, 0x00, 0xd1, 0xf4, 0xff, 0xff, 0x7c, 0xeb, 0xff, 0xff,
  0x3f, 0x17, 0x00, 0x00, 0xdc, 0x1b, 0x00, 0x00, 0x1b, 0x07, 0x00, 0x00,
  0x6f, 0xbb, 0xff, 0xff, 0xaa, 0xfc, 0xff, 0xff, 0x9e, 0xeb, 0xff, 0xff,
  0x24, 0xef, 0xff, 0xff, 0x0d, 0xe0, 0xff, 0xff, 0xf2, 0xf2, 0xff, 0xff,
  0x62, 0xef, 0xff, 0xff, 0x71, 0xe8, 0xff, 0xff, 0xf9, 0x08, 0x00, 0x00,
  0x82, 0x02, 0x00, 0x00, 0xbf, 0xd9, 0xff, 0xff, 0x32, 0xe0, 0xff, 0xff,
  0xad, 0x00, 0x00, 0x00, 0x41, 0x09, 0x00, 0x00, 0x77, 0xfb, 0xff, 0xff,
  0x02, 0xf2, 0xff, 0xff, 0xc5, 0xe1, 0xff, 0xff, 0x65, 0xe7, 0xff, 0xff,
  0xe2, 0xea, 0xff, 0xff, 0x04, 0x00, 0x00, 0x00, 0x00, 0x12, 0x00, 0x00,
  0x26, 0x09, 0xe4, 0x04, 0x28, 0x24, 0xb3, 0x15, 0x06, 0x00, 0x35, 0x39,
  0x26, 0x24, 0x19, 0x0e, 0x09, 0xe6, 0xcf, 0x1f, 0x2f, 0x36, 0xe8, 0xf1,
  0x15, 0x18, 0x2e, 0x28, 0xfa, 0x2a, 0xce, 0x3f, 0x43, 0xff, 0x19, 0x02,
  0x15, 0x41, 0x2e, 0x33, 0x2f, 0xd4, 0x23, 0x33, 0x00, 0x2f, 0x7f, 0x0a,
  0x2c, 0x37, 0xe8, 0xe5, 0x43, 0x0b, 0xf2, 0x49, 0x16, 0x05, 0x3b, 0x38,
  0x5d, 0x2f, 0x31, 0xe8, 0x20, 0xed, 0xeb, 0x1f, 0x40, 0x0c, 0xe7, 0xcc,
  0x15, 0x0b, 0x22, 0x3b, 0x36, 0x05, 0x13, 0x02, 0x29, 0xfb, 0x07, 0xfe,
  0x33, 0xde, 0xea, 0x29, 0xeb, 0xec, 0x29, 0x51, 0x17, 0x2c, 0x4a, 0x28,
  0x43, 0x31, 0x21, 0x0c, 0x2d, 0x13, 0xde, 0x0c, 0xf5, 0x32, 0x42, 0x46,
  0x1d, 0x30, 0xf0, 0x16, 0x19, 0x1b, 0xe8, 0x36, 0x11, 0x07, 0x57, 0xbb,
  0xcb, 0x14, 0x35, 0x2f, 0x15, 0x1a, 0x3f, 0xfc, 0xea, 0x39, 0x2b, 0x00,
  0xd6, 0xd6, 0xdd, 0x1a, 0xd7, 0x20, 0x24, 0x19, 0x01, 0xf8, 0x2c, 0x19,
  0x0d, 0x25, 0x31, 0xfd, 0x39, 0x17, 0xf5, 0x32, 0x27, 0x0c, 0x0f, 0x01,
  0x28, 0x11, 0x26, 0x3d, 0x41, 0x23, 0x22, 0xd6, 0x28, 0x39, 0x1f, 0x27,
  0xef, 0x2e, 0x1f, 0x21, 0xfc, 0xfd, 0x40, 0x27, 0x50, 0xeb, 0x75, 0x1e,
  0x6d, 0x2d, 0x0b, 0x3e, 0x69, 0x09, 0x28, 0x22, 0x7f, 0x42, 0x4b, 0x26,
  0x0e, 0xe8, 0x25, 0xe5, 0x3a, 0x1f, 0x0b, 0x14, 0x18, 0x12, 0xf3, 0x1d,
  0x32, 0x26, 0x1a, 0x1b, 0x31, 0x0e, 0x1a, 0xb7, 0x42, 0xd5, 0x41, 0xf0,
  0x15, 0xfa, 0xef, 0xf5, 0xf1, 0x08, 0x18, 0x08, 0x13, 0xf0, 0x26, 0x01,
  0x22, 0x45, 0xf8, 0x12, 0x3d, 0x66, 0xfe, 0x65, 0x68, 0x5e, 0xc9, 0xb7,
  0x0b, 0x16, 0x17, 0xef, 0x2e, 0x0c, 0x09, 0x04, 0xf8, 0x17, 0xf6, 0x1a,
  0x1b, 0x0b, 0x13, 0x21, 0x54, 0x0e, 0x1b, 0xea, 0x36, 0x28, 0x33, 0x67,
  0x12, 0xd1, 0x10, 0xc4, 0xd7, 0xfb, 0x09, 0x33, 0x11, 0xfc, 0x4c, 0xfb,
  0x1d, 0x52, 0xe5, 0xea, 0x46, 0xfe, 0x15, 0x16, 0x23, 0x05, 0xe7, 0xdc,
  0x2f, 0xd5, 0x01, 0xfa, 0x55, 0x1b, 0x17, 0x2d, 0x34, 0xd5, 0x1f, 0x3f,
  0xf6, 0x56, 0x3c, 0x0c, 0x25, 0xb5, 0xb8, 0x06, 0x78, 0x14, 0xe8, 0xfc,
  0xcc, 0x91, 0x51, 0x1c, 0x3a, 0x1e, 0x1e, 0xc8, 0x0d, 0xcf, 0xf8, 0x0c,
  0x06, 0x1b, 0x38, 0xf3, 0xf4, 0xee, 0x2a, 0x25, 0x04, 0x1a, 0x0b, 0xf6,
  0x38, 0x19, 0xae, 0xd5, 0x41, 0xf8, 0x9d, 0xe4, 0xf1, 0xb5, 0x21, 0x5f,
  0x0e, 0x74, 0x7f, 0x2d, 0xf1, 0xac, 0xd6, 0xfe, 0x35, 0x23, 0x03, 0xce,
  0x0f, 0x92, 0x20, 0x15, 0xfa, 0x2d, 0xe2, 0x15, 0x05, 0xf5, 0xee, 0xfe,
  0x04, 0x0d, 0x1e, 0xfb, 0x10, 0xe7, 0xdc, 0x1c, 0x0b, 0x22, 0x11, 0x1b,
  0xee, 0x4c, 0xee, 0xfa, 0x36, 0xf8, 0xf2, 0x18, 0x15, 0x13, 0xee, 0x47,
  0x62, 0x30, 0x25, 0x0b, 0x49, 0xe6, 0xdd, 0x18, 0xb9, 0x4e, 0x1d, 0xf0,
  0x3d, 0xaa, 0x33, 0xfa, 0xea, 0x30, 0x13, 0xac, 0x38, 0xfa, 0x22, 0x04,
  0x17, 0xdd, 0xe5, 0x13, 0x30, 0x01, 0x02, 0x3a, 0x12, 0x3c, 0x1a, 0x39,
  0x32, 0x09, 0xed, 0x0d, 0x30, 0xdd, 0xb6, 0x1d, 0xf7, 0xce, 0x12, 0x26,
  0xf2, 0x42, 0x10, 0xef, 0x61, 0xc1, 0xfc, 0x1d, 0xea, 0x44, 0x11, 0xdc,
  0x65, 0x32, 0xe5, 0x17, 0x00, 0x1d, 0x81, 0x1a, 0x1b, 0xe7, 0xfd, 0xfd,
  0x14, 0x46, 0x33, 0x29, 0x31, 0xe2, 0xd4, 0x3f, 0xfa, 0x19, 0x35, 0x0f,
  0x3b, 0xee, 0xee, 0xf8, 0x33, 0xf0, 0xb9, 0xf1, 0xf1, 0xdc, 0xe4, 0x30,
  0xff, 0x53, 0xf0, 0xe0, 0x1a, 0xdf, 0xc8, 0xf7, 0x39, 0x4b, 0xce, 0xb2,
  0x50, 0xf6, 0x49, 0x19, 0x32, 0x19, 0x9a, 0x12, 0x0f, 0x07, 0xe6, 0xfa,
  0x1e, 0xfc, 0xde, 0x12, 0x19, 0x06, 0x07, 0x18, 0xf1, 0x19, 0x63, 0x4b,
  0x2d, 0x14, 0xd4, 0xfe, 0x0f, 0x06, 0xb7, 0xca, 0xd6, 0xf6, 0xf7, 0x0f,
  0x09, 0x29, 0xed, 0xdc, 0xfd, 0xd2, 0xf6, 0x07, 0x23, 0xf8, 0x20, 0xae,
  0xbb, 0x0a, 0x1d, 0x3f, 0xe7, 0xff, 0xe9, 0xf8, 0xe7, 0x6a, 0x22, 0x02,
  0x04, 0xd8, 0xf0, 0x29, 0x06, 0x2e, 0x09, 0xfd, 0xfd, 0xed, 0x57, 0x25,
  0x07, 0xf5, 0x10, 0xfe, 0xfc, 0xfb, 0x1a, 0x10, 0x07, 0xf8, 0x08, 0xea,
  0x0b, 0x0a, 0xfb, 0x06, 0x00, 0x01, 0x20, 0x02, 0x1d, 0x10, 0x37, 0xe3,
  0xf1, 0xf7, 0xe6, 0x0e, 0xf5, 0xf8, 0x07, 0xe3, 0xe3, 0x69, 0x44, 0x03,
  0x1d, 0x09, 0x08, 0x04, 0x08, 0x7f, 0x11, 0xf8, 0x26, 0xfb, 0xde, 0x1e,
  0x1a, 0x0e, 0x50, 0x11, 0x0e, 0xf6, 0x1e, 0x01, 0x02, 0x3b, 0xf8, 0xf4,
  0xee, 0x16, 0xf7, 0x21, 0x16, 0xe2, 0xf1, 0x45, 0xc0, 0x1f, 0x18, 0x20,
  0x34, 0xfa, 0xe3, 0x04, 0xf2, 0xed, 0x1a, 0x0b, 0x0f, 0xf8, 0x06, 0x13,
  0xf1, 0x0c, 0x34, 0x12, 0x15, 0xf0, 0xf8, 0xc5, 0xf5, 0xc9, 0xf7, 0x15,
  0xfd, 0x1c, 0x1a, 0x0c, 0x1c, 0x1d, 0x38, 0x0b, 0x00, 0x1c, 0x0e, 0xfa,
  0x1d, 0x0a, 0x0c, 0x1b, 0x08, 0x10, 0xf2, 0xf0, 0xdd, 0xfc, 0xca, 0x21,
  0x0f, 0xfe, 0x0c, 0xe0, 0xfc, 0xff, 0xf8, 0x10, 0x1a, 0xdf, 0xeb, 0xff,
  0xfb, 0xf2, 0x0a, 0xf9, 0x1f, 0xfd, 0xfb, 0x00, 0xcd, 0xfd, 0x15, 0x0f,
  0xee, 0xd8, 0xd8, 0xf9, 0xf5, 0xdc, 0xf4, 0xd5, 0xe9, 0xc4, 0x2f, 0xed,
  0xe0, 0xe5, 0xc0, 0xcf, 0x35, 0x69, 0xf0, 0x20, 0xf3, 0x03, 0x4a, 0xda,
  0xc0, 0x0d, 0x3f, 0x4f, 0x59, 0x04, 0x39, 0x2b, 0x16, 0xf4, 0x0d, 0xf0,
  0x3a, 0x09, 0x20, 0x42, 0x2f, 0xe9, 0x1d, 0x2e, 0x25, 0x4f, 0x50, 0xf8,
  0x01, 0xdf, 0xdd, 0xf1, 0x19, 0xbd, 0x12, 0xcf, 0xe1, 0xda, 0x14, 0x05,
  0xed, 0x29, 0xda, 0xc1, 0xdc, 0x0a, 0xf1, 0x1c, 0xd2, 0xe0, 0xed, 0x86,
  0x09, 0x1a, 0xe8, 0x02, 0xf5, 0x19, 0x15, 0x17, 0x02, 0x0f, 0x13, 0x08,
  0x7f, 0x1d, 0xd6, 0x78, 0xe3, 0x30, 0x0f, 0x6d, 0x40, 0x33, 0x2e, 0x0c,
  0xec, 0xb8, 0xe1, 0x10, 0xce, 0xd9, 0xf2, 0xb5, 0xe6, 0xfc, 0x10, 0xfc,
  0xe4, 0xd0, 0xbd, 0xde, 0xec, 0xf2, 0x46, 0x18, 0xf7, 0xdc, 0xfe, 0xef,
  0xf3, 0xff, 0x00, 0xf7, 0xfd, 0x09, 0x1e, 0x02, 0xfc, 0x0c, 0xf7, 0xf4,
  0xf1, 0xd7, 0xf2, 0x38, 0xd2, 0x07, 0xf7, 0x3a, 0xd3, 0x0e, 0xe5, 0xdb,
  0x1b, 0x31, 0x1d, 0xf0, 0xfe, 0x3f, 0xdc, 0x06, 0xff, 0xe9, 0x35, 0xf5,
  0x23, 0x36, 0x0a, 0x39, 0x17, 0xeb, 0xd9, 0xd0, 0x3a, 0xd2, 0xe6, 0xd9,
  0xf7, 0x02, 0x20, 0xef, 0xff, 0xfd, 0xed, 0x0c, 0x11, 0x12, 0x51, 0xf9,
  0xfb, 0x17, 0x25, 0xe5, 0xe7, 0x50, 0x07, 0xc6, 0x2b, 0xf0, 0x04, 0xff,
  0x21, 0x12, 0x40, 0x0d, 0x15, 0xe3, 0x49, 0x1e, 0xfa, 0xf6, 0x0e, 0x0e,
  0x2f, 0x3e, 0xec, 0xe9, 0x0e, 0x52, 0x29, 0x4a, 0x09, 0x08, 0x47, 0x10,
  0xf6, 0x3c, 0x36, 0x43, 0x7f, 0x37, 0x27, 0x0d, 0x1a, 0x68, 0x4f, 0xf9,
  0xea, 0x14, 0x53, 0x3d, 0xea, 0xb8, 0xcb, 0xc4, 0xbe, 0xe9, 0x1e, 0xde,
  0x2a, 0x0f, 0x43, 0xe9, 0x1a, 0xe5, 0x36, 0x19, 0x0d, 0x00, 0x1a, 0x04,
  0x0f, 0x37, 0xde, 0x22, 0xa9, 0x10, 0x0f, 0x13, 0xe5, 0xfb, 0xf0, 0xa5,
  0xe0, 0x37, 0xec, 0x30, 0x35, 0xc3, 0x58, 0x25, 0xcb, 0xdd, 0xa7, 0x14,
  0xe1, 0xca, 0xff, 0xee, 0xde, 0xde, 0x07, 0xda, 0x43, 0xef, 0x1f, 0x05,
  0x11, 0x09, 0x15, 0xf2, 0x21, 0xea, 0xfc, 0x13, 0x1b, 0x13, 0xdf, 0x1b,
  0x12, 0x0f, 0x1e, 0x0d, 0xf2, 0x10, 0xfe, 0xed, 0x20, 0xd6, 0x06, 0xf8,
  0xcf, 0x18, 0x04, 0xf7, 0x25, 0xfb, 0x18, 0x0c, 0x12, 0x11, 0x0c, 0x02,
  0x24, 0xe0, 0x2b, 0x0e, 0x38, 0x2b, 0x14, 0xf0, 0x3f, 0x2d, 0x27, 0x05,
  0x04, 0xf0, 0x39, 0x07, 0x20, 0xea, 0x1d, 0x1e, 0xfc, 0x2a, 0x03, 0x12,
  0x1f, 0x10, 0x03, 0x29, 0x16, 0xf0, 0x0c, 0x08, 0x24, 0xdd, 0x1a, 0xd3,
  0xee, 0xfa, 0xf8, 0xf6, 0xec, 0xe9, 0x00, 0xd6, 0x11, 0x3a, 0x7f, 0x02,
  0x22, 0xec, 0xf6, 0x00, 0x00, 0x52, 0xf9, 0xc0, 0xfc, 0xf7, 0xe3, 0x0c,
  0x1b, 0x28, 0x79, 0xff, 0x28, 0xe3, 0x3e, 0x20, 0x18, 0x59, 0xd3, 0x1e,
  0x26, 0x11, 0x07, 0x17, 0x02, 0xe6, 0xf6, 0x3e, 0xcc, 0x1c, 0x19, 0x2c,
  0x3e, 0xed, 0xff, 0x0d, 0xd4, 0xf2, 0xf8, 0xf8, 0xe9, 0x20, 0xe0, 0xfa,
  0xee, 0xff, 0xef, 0x1d, 0x0c, 0xf1, 0xe1, 0xf2, 0x11, 0xf2, 0xff, 0xfe,
  0xd7, 0xfd, 0xe2, 0x14, 0xd1, 0x06, 0xbb, 0xe3, 0xc8, 0xe5, 0x30, 0xe7,
  0xc4, 0xcc, 0xd1, 0xb7, 0x27, 0xee, 0xf9, 0xc9, 0x2e, 0xd3, 0xd7, 0xf6,
  0x00, 0xf5, 0xce, 0xe4, 0xe1, 0xe2, 0xd4, 0xe5, 0x43, 0x04, 0xc9, 0x01,
  0x13, 0x32, 0xfb, 0xff, 0xd7, 0xf1, 0xdd, 0x11, 0x17, 0xe7, 0xe7, 0xd8,
  0xfd, 0x24, 0xeb, 0x0e, 0x0e, 0xe9, 0x02, 0x19, 0xdb, 0x0e, 0xb7, 0xf2,
